{
  "version": "1.0",
  "truncation": null,
  "padding": null,
  "added_tokens": [
    {
      "id": 0,
      "content": "[PAD]",
      "single_word": false,
      "lstrip": false,
      "rstrip": false,
      "normalized": false,
      "special": true
    },
    {
      "id": 1,
      "content": "[UNK]",
      "single_word": false,
      "lstrip": false,
      "rstrip": false,
      "normalized": false,
      "special": true
    }
  ],
  "normalizer": {
    "type": "Sequence",
    "normalizers": [
      {
        "type": "NFD"
      },
      {
        "type": "Lowercase"
      },
      {
        "type": "StripAccents"
      }
    ]
  },
  "pre_tokenizer": {
    "type": "Whitespace"
  },
  "post_processor": null,
  "decoder": null,
  "model": {
    "type": "BPE",
    "dropout": null,
    "unk_token": "[UNK]",
    "continuing_subword_prefix": null,
    "end_of_word_suffix": null,
    "fuse_unk": false,
    "byte_fallback": false,
    "ignore_merges": false,
    "vocab": {
      "[PAD]": 0,
      "[UNK]": 1,
      "_": 2,
      "a": 3,
      "b": 4,
      "c": 5,
      "d": 6,
      "e": 7,
      "f": 8,
      "g": 9,
      "h": 10,
      "i": 11,
      "j": 12,
      "k": 13,
      "l": 14,
      "m": 15,
      "n": 16,
      "o": 17,
      "p": 18,
      "q": 19,
      "r": 20,
      "s": 21,
      "t": 22,
      "u": 23,
      "v": 24,
      "w": 25,
      "x": 26,
      "y": 27,
      "z": 28,
      "in": 29,
      "th": 30,
      "an": 31,
      "to": 32,
      "er": 33,
      "ou": 34,
      "ing": 35,
      "on": 36,
      "re": 37,
      "at": 38,
      "no": 39,
      "the": 40,
      "it": 41,
      "or": 42,
      "st": 43,
      "ll": 44,
      "me": 45,
      "is": 46,
      "ha": 47,
      "ay": 48,
      "ee": 49,
      "oo": 50,
      "ve": 51,
      "not": 52,
      "you": 53,
      "and": 54,
      "my": 55,
      "le": 56,
      "ed": 57,
      "ar": 58,
      "en": 59,
      "so": 60,
      "ch": 61,
      "as": 62,
      "be": 63,
      "ho": 64,
      "es": 65,
      "not_": 66,
      "go": 67,
      "ad": 68,
      "gh": 69,
      "lo": 70,
      "day": 71,
      "for": 72,
      "of": 73,
      "ck": 74,
      "all": 75,
      "li": 76,
      "am": 77,
      "ro": 78,
      "ut": 79,
      "wi": 80,
      "al": 81,
      "et": 82,
      "he": 83,
      "un": 84,
      "wh": 85,
      "ti": 86,
      "ke": 87,
      "that": 88,
      "we": 89,
      "ri": 90,
      "ght": 91,
      "do": 92,
      "ver": 93,
      "out": 94,
      "se": 95,
      "ly": 96,
      "have": 97,
      "id": 98,
      "one": 99,
      "now": 100,
      "up": 101,
      "ust": 102,
      "co": 103,
      "ce": 104,
      "ld": 105,
      "but": 106,
      "mo": 107,
      "ter": 108,
      "wor": 109,
      "just": 110,
      "ni": 111,
      "ere": 112,
      "can": 113,
      "with": 114,
      "ne": 115,
      "ood": 116,
      "get": 117,
      "was": 118,
      "la": 119,
      "ra": 120,
      "are": 121,
      "ir": 122,
      "ma": 123,
      "qu": 124,
      "ab": 125,
      "ur": 126,
      "some": 127,
      "pe": 128,
      "good": 129,
      "tw": 130,
      "work": 131,
      "ally": 132,
      "im": 133,
      "this": 134,
      "ry": 135,
      "us": 136,
      "pp": 137,
      "ot": 138,
      "ic": 139,
      "ould": 140,
      "ill": 141,
      "sh": 142,
      "ba": 143,
      "end": 144,
      "night": 145,
      "de": 146,
      "su": 147,
      "like": 148,
      "love": 149,
      "mor": 150,
      "got": 151,
      "ant": 152,
      "nt": 153,
      "na": 154,
      "time": 155,
      "don": 156,
      "ate": 157,
      "ther": 158,
      "too": 159,
      "how": 160,
      "ye": 161,
      "quot": 162,
      "ink": 163,
      "thing": 164,
      "than": 165,
      "ag": 166,
      "today": 167,
      "your": 168,
      "ss": 169,
      "see": 170,
      "iss": 171,
      "ook": 172,
      "if": 173,
      "bo": 174,
      "going": 175,
      "fee": 176,
      "po": 177,
      "te": 178,
      "ta": 179,
      "haha": 180,
      "ish": 181,
      "way": 182,
      "very": 183,
      "wee": 184,
      "what": 185,
      "back": 186,
      "eep": 187,
      "rom": 188,
      "any": 189,
      "lol": 190,
      "fin": 191,
      "ting": 192,
      "wa": 193,
      "miss": 194,
      "ion": 195,
      "want": 196,
      "fo": 197,
      "amp": 198,
      "fa": 199,
      "from": 200,
      "fe": 201,
      "ow": 202,
      "know": 203,
      "mm": 204,
      "ong": 205,
      "our": 206,
      "ca": 207,
      "atch": 208,
      "ex": 209,
      "will": 210,
      "did": 211,
      "new": 212,
      "thank": 213,
      "ning": 214,
      "art": 215,
      "think": 216,
      "ple": 217,
      "feel": 218,
      "about": 219,
      "si": 220,
      "ah": 221,
      "had": 222,
      "really": 223,
      "off": 224,
      "sa": 225,
      "its": 226,
      "nd": 227,
      "oh": 228,
      "eed": 229,
      "ers": 230,
      "pl": 231,
      "week": 232,
      "gu": 233,
      "row": 234,
      "mu": 235,
      "ain": 236,
      "fri": 237,
      "read": 238,
      "ie": 239,
      "more": 240,
      "gre": 241,
      "watch": 242,
      "home": 243,
      "com": 244,
      "there": 245,
      "ent": 246,
      "well": 247,
      "il": 248,
      "ough": 249,
      "they": 250,
      "red": 251,
      "need": 252,
      "still": 253,
      "twit": 254,
      "sp": 255,
      "ct": 256,
      "ool": 257,
      "con": 258,
      "fu": 259,
      "ge": 260,
      "ite": 261,
      "look": 262,
      "sl": 263,
      "when": 264,
      "fun": 265,
      "hope": 266,
      "ving": 267,
      "twitter": 268,
      "um": 269,
      "ound": 270,
      "een": 271,
      "last": 272,
      "happ": 273,
      "mi": 274,
      "ts": 275,
      "jo": 276,
      "here": 277,
      "come": 278,
      "much": 279,
      "king": 280,
      "ine": 281,
      "ph": 282,
      "ard": 283,
      "sleep": 284,
      "ess": 285,
      "morrow": 286,
      "has": 287,
      "pre": 288,
      "thanks": 289,
      "every": 290,
      "then": 291,
      "her": 292,
      "eve": 293,
      "hh": 294,
      "wn": 295,
      "ide": 296,
      "tomorrow": 297,
      "pro": 298,
      "wish": 299,
      "lu": 300,
      "morning": 301,
      "aa": 302,
      "oooo": 303,
      "been": 304,
      "great": 305,
      "sad": 306,
      "wait": 307,
      "ous": 308,
      "che": 309,
      "by": 310,
      "right": 311,
      "ind": 312,
      "again": 313,
      "sun": 314,
      "use": 315,
      "she": 316,
      "friend": 317,
      "sto": 318,
      "would": 319,
      "llow": 320,
      "af": 321,
      "bad": 322,
      "ty": 323,
      "sor": 324,
      "won": 325,
      "gr": 326,
      "bu": 327,
      "ig": 328,
      "could": 329,
      "man": 330,
      "follow": 331,
      "ready": 332,
      "ass": 333,
      "ble": 334,
      "twee": 335,
      "ation": 336,
      "why": 337,
      "ff": 338,
      "only": 339,
      "over": 340,
      "rain": 341,
      "stu": 342,
      "dy": 343,
      "other": 344,
      "aw": 345,
      "who": 346,
      "mon": 347,
      "bet": 348,
      "lt": 349,
      "pa": 350,
      "ok": 351,
      "der": 352,
      "show": 353,
      "say": 354,
      "tonight": 355,
      "ru": 356,
      "though": 357,
      "happy": 358,
      "rea": 359,
      "should": 360,
      "make": 361,
      "gon": 362,
      "xt": 363,
      "sorry": 364,
      "them": 365,
      "bed": 366,
      "down": 367,
      "di": 368,
      "per": 369,
      "head": 370,
      "sch": 371,
      "ys": 372,
      "lea": 373,
      "getting": 374,
      "try": 375,
      "pic": 376,
      "ive": 377,
      "ster": 378,
      "lf": 379,
      "after": 380,
      "play": 381,
      "nice": 382,
      "days": 383,
      "gonna": 384,
      "har": 385,
      "ny": 386,
      "ac": 387,
      "ase": 388,
      "does": 389,
      "better": 390,
      "yeah": 391,
      "yes": 392,
      "sc": 393,
      "ber": 394,
      "tle": 395,
      "gl": 396,
      "ment": 397,
      "watching": 398,
      "hi": 399,
      "br": 400,
      "ga": 401,
      "xx": 402,
      "may": 403,
      "ile": 404,
      "phone": 405,
      "ang": 406,
      "long": 407,
      "school": 408,
      "hour": 409,
      "ies": 410,
      "peo": 411,
      "people": 412,
      "cause": 413,
      "didn": 414,
      "ice": 415,
      "ick": 416,
      "tu": 417,
      "bab": 418,
      "om": 419,
      "him": 420,
      "mad": 421,
      "where": 422,
      "let": 423,
      "lit": 424,
      "hey": 425,
      "vie": 426,
      "ps": 427,
      "fi": 428,
      "gg": 429,
      "ree": 430,
      "part": 431,
      "app": 432,
      "hate": 433,
      "ans": 434,
      "awe": 435,
      "weekend": 436,
      "even": 437,
      "ear": 438,
      "anna": 439,
      "min": 440,
      "ms": 441,
      "tion": 442,
      "tho": 443,
      "cks": 444,
      "ci": 445,
      "ought": 446,
      "next": 447,
      "gir": 448,
      "bro": 449,
      "awesome": 450,
      "never": 451,
      "cra": 452,
      "ugh": 453,
      "ul": 454,
      "soon": 455,
      "kes": 456,
      "fir": 457,
      "best": 458,
      "dont": 459,
      "start": 460,
      "list": 461,
      "yy": 462,
      "tal": 463,
      "were": 464,
      "cit": 465,
      "his": 466,
      "ama": 467,
      "cant": 468,
      "fore": 469,
      "sup": 470,
      "take": 471,
      "pr": 472,
      "ways": 473,
      "girl": 474,
      "sho": 475,
      "car": 476,
      "year": 477,
      "hu": 478,
      "ater": 479,
      "little": 480,
      "sick": 481,
      "first": 482,
      "working": 483,
      "age": 484,
      "life": 485,
      "put": 486,
      "most": 487,
      "inter": 488,
      "tired": 489,
      "bit": 490,
      "ser": 491,
      "wanna": 492,
      "call": 493,
      "bea": 494,
      "ft": 495,
      "book": 496,
      "sure": 497,
      "wr": 498,
      "cou": 499,
      "tweet": 500,
      "du": 501,
      "having": 502,
      "doing": 503,
      "dam": 504,
      "being": 505,
      "ouse": 506,
      "mar": 507,
      "dr": 508,
      "mmer": 509,
      "ooo": 510,
      "eat": 511,
      "late": 512,
      "rr": 513,
      "self": 514,
      "hel": 515,
      "ste": 516,
      "done": 517,
      "feeling": 518,
      "zing": 519,
      "hur": 520,
      "yay": 521,
      "joy": 522,
      "find": 523,
      "able": 524,
      "ever": 525,
      "please": 526,
      "keep": 527,
      "cl": 528,
      "da": 529,
      "cut": 530,
      "tri": 531,
      "house": 532,
      "cle": 533,
      "friends": 534,
      "cool": 535,
      "wo": 536,
      "always": 537,
      "zz": 538,
      "ner": 539,
      "act": 540,
      "already": 541,
      "side": 542,
      "ort": 543,
      "live": 544,
      "another": 545,
      "something": 546,
      "est": 547,
      "ya": 548,
      "everyone": 549,
      "made": 550,
      "brea": 551,
      "til": 552,
      "ream": 553,
      "guys": 554,
      "luck": 555,
      "sit": 556,
      "tra": 557,
      "dis": 558,
      "song": 559,
      "pret": 560,
      "enjoy": 561,
      "aww": 562,
      "cu": 563,
      "full": 564,
      "because": 565,
      "help": 566,
      "sha": 567,
      "old": 568,
      "went": 569,
      "looking": 570,
      "yet": 571,
      "hours": 572,
      "big": 573,
      "sound": 574,
      "lot": 575,
      "bir": 576,
      "before": 577,
      "par": 578,
      "damn": 579,
      "movie": 580,
      "je": 581,
      "away": 582,
      "win": 583,
      "hot": 584,
      "tell": 585,
      "int": 586,
      "summer": 587,
      "urn": 588,
      "hell": 589,
      "pretty": 590,
      "ually": 591,
      "unch": 592,
      "omg": 593,
      "thought": 594,
      "pla": 595,
      "dd": 596,
      "ful": 597,
      "maybe": 598,
      "ance": 599,
      "bl": 600,
      "blo": 601,
      "bus": 602,
      "game": 603,
      "pt": 604,
      "star": 605,
      "finish": 606,
      "tor": 607,
      "trying": 608,
      "amazing": 609,
      "light": 610,
      "excit": 611,
      "ii": 612,
      "guess": 613,
      "listen": 614,
      "ious": 615,
      "mus": 616,
      "el": 617,
      "while": 618,
      "ily": 619,
      "wea": 620,
      "eeee": 621,
      "things": 622,
      "finally": 623,
      "kind": 624,
      "early": 625,
      "check": 626,
      "times": 627,
      "hard": 628,
      "coming": 629,
      "clo": 630,
      "into": 631,
      "vis": 632,
      "fuck": 633,
      "mom": 634,
      "fam": 635,
      "des": 636,
      "left": 637,
      "ton": 638,
      "someone": 639,
      "bs": 640,
      "hear": 641,
      "roo": 642,
      "wow": 643,
      "cer": 644,
      "less": 645,
      "ash": 646,
      "give": 647,
      "gs": 648,
      "run": 649,
      "friday": 650,
      "les": 651,
      "kid": 652,
      "ds": 653,
      "break": 654,
      "pen": 655,
      "stuff": 656,
      "sin": 657,
      "same": 658,
      "ure": 659,
      "missed": 660,
      "ja": 661,
      "face": 662,
      "lost": 663,
      "baby": 664,
      "talk": 665,
      "nothing": 666,
      "ated": 667,
      "load": 668,
      "ward": 669,
      "party": 670,
      "sat": 671,
      "glad": 672,
      "bored": 673,
      "swee": 674,
      "set": 675,
      "boo": 676,
      "post": 677,
      "tr": 678,
      "sing": 679,
      "weather": 680,
      "later": 681,
      "also": 682,
      "looks": 683,
      "real": 684,
      "happen": 685,
      "two": 686,
      "god": 687,
      "birth": 688,
      "vo": 689,
      "music": 690,
      "hair": 691,
      "world": 692,
      "doesn": 693,
      "many": 694,
      "sk": 695,
      "sucks": 696,
      "ia": 697,
      "saw": 698,
      "uu": 699,
      "might": 700,
      "ise": 701,
      "spe": 702,
      "dri": 703,
      "actually": 704,
      "stay": 705,
      "wonder": 706,
      "waiting": 707,
      "far": 708,
      "excited": 709,
      "hun": 710,
      "exam": 711,
      "those": 712,
      "ity": 713,
      "ange": 714,
      "ding": 715,
      "din": 716,
      "birthday": 717,
      "tv": 718,
      "makes": 719,
      "ason": 720,
      "yester": 721,
      "meet": 722,
      "free": 723,
      "wer": 724,
      "zy": 725,
      "said": 726,
      "line": 727,
      "yesterday": 728,
      "fr": 729,
      "wal": 730,
      "ach": 731,
      "vide": 732,
      "cor": 733,
      "since": 734,
      "bla": 735,
      "land": 736,
      "until": 737,
      "thats": 738,
      "beaut": 739,
      "ked": 740,
      "few": 741,
      "gotta": 742,
      "shit": 743,
      "net": 744,
      "wake": 745,
      "such": 746,
      "cold": 747,
      "em": 748,
      "ats": 749,
      "upd": 750,
      "bb": 751,
      "boy": 752,
      "hahaha": 753,
      "video": 754,
      "around": 755,
      "dad": 756,
      "myself": 757,
      "class": 758,
      "must": 759,
      "port": 760,
      "ten": 761,
      "cha": 762,
      "pping": 763,
      "body": 764,
      "count": 765,
      "cho": 766,
      "gt": 767,
      "found": 768,
      "bor": 769,
      "mber": 770,
      "io": 771,
      "tru": 772,
      "ates": 773,
      "leave": 774,
      "ating": 775,
      "reme": 776,
      "least": 777,
      "ger": 778,
      "mean": 779,
      "monday": 780,
      "pho": 781,
      "under": 782,
      "sm": 783,
      "iful": 784,
      "plan": 785,
      "their": 786,
      "poor": 787,
      "cr": 788,
      "mind": 789,
      "room": 790,
      "haven": 791,
      "job": 792,
      "wed": 793,
      "sounds": 794,
      "sunday": 795,
      "ction": 796,
      "fer": 797,
      "till": 798,
      "tt": 799,
      "beautiful": 800,
      "making": 801,
      "ary": 802,
      "turn": 803,
      "hehe": 804,
      "top": 805,
      "stop": 806,
      "gone": 807,
      "pain": 808,
      "beli": 809,
      "buy": 810,
      "food": 811,
      "fast": 812,
      "ace": 813,
      "fav": 814,
      "ture": 815,
      "lunch": 816,
      "ress": 817,
      "anything": 818,
      "gy": 819,
      "okay": 820,
      "drink": 821,
      "rest": 822,
      "aaaa": 823,
      "missing": 824,
      "med": 825,
      "men": 826,
      "pers": 827,
      "pi": 828,
      "oney": 829,
      "month": 830,
      "ich": 831,
      "grad": 832,
      "air": 833,
      "rough": 834,
      "low": 835,
      "ken": 836,
      "add": 837,
      "cked": 838,
      "family": 839,
      "woke": 840,
      "almost": 841,
      "isn": 842,
      "cket": 843,
      "ank": 844,
      "cute": 845,
      "mail": 846,
      "wanted": 847,
      "xo": 848,
      "fully": 849,
      "used": 850,
      "photo": 851,
      "soooo": 852,
      "ju": 853,
      "iphone": 854,
      "ball": 855,
      "dinner": 856,
      "listening": 857,
      "picture": 858,
      "funny": 859,
      "place": 860,
      "super": 861,
      "cry": 862,
      "study": 863,
      "ak": 864,
      "dream": 865,
      "pu": 866,
      "bum": 867,
      "everything": 868,
      "believe": 869,
      "ence": 870,
      "sweet": 871,
      "sur": 872,
      "finished": 873,
      "ley": 874,
      "wel": 875,
      "mess": 876,
      "playing": 877,
      "anyone": 878,
      "which": 879,
      "va": 880,
      "name": 881,
      "cof": 882,
      "tot": 883,
      "kill": 884,
      "thinking": 885,
      "forward": 886,
      "rep": 887,
      "arent": 888,
      "without": 889,
      "stup": 890,
      "mine": 891,
      "gn": 892,
      "als": 893,
      "hand": 894,
      "ze": 895,
      "stupid": 896,
      "tin": 897,
      "test": 898,
      "coffee": 899,
      "war": 900,
      "oot": 901,
      "fre": 902,
      "send": 903,
      "ted": 904,
      "clean": 905,
      "ap": 906,
      "bur": 907,
      "ago": 908,
      "ping": 909,
      "through": 910,
      "ache": 911,
      "outside": 912,
      "not_i": 913,
      "bar": 914,
      "totally": 915,
      "these": 916,
      "hang": 917,
      "ip": 918,
      "ones": 919,
      "enough": 920,
      "ast": 921,
      "bi": 922,
      "sy": 923,
      "au": 924,
      "ness": 925,
      "press": 926,
      "hurts": 927,
      "dan": 928,
      "gra": 929,
      "anymore": 930,
      "probab": 931,
      "didnt": 932,
      "satur": 933,
      "heart": 934,
      "lor": 935,
      "probably": 936,
      "weeks": 937,
      "cour": 938,
      "hhhh": 939,
      "care": 940,
      "ved": 941,
      "hmm": 942,
      "came": 943,
      "gi": 944,
      "pped": 945,
      "ins": 946,
      "bye": 947,
      "raining": 948,
      "person": 949,
      "comp": 950,
      "nor": 951,
      "wrong": 952,
      "tweets": 953,
      "remember": 954,
      "sooo": 955,
      "hor": 956,
      "minut": 957,
      "eating": 958,
      "busy": 959,
      "lle": 960,
      "sed": 961,
      "tre": 962,
      "stand": 963,
      "tom": 964,
      "view": 965,
      "vin": 966,
      "hit": 967,
      "cur": 968,
      "brother": 969,
      "money": 970,
      "reading": 971,
      "open": 972,
      "half": 973,
      "serious": 974,
      "ask": 975,
      "nn": 976,
      "son": 977,
      "pass": 978,
      "mother": 979,
      "ither": 980,
      "band": 981,
      "wants": 982,
      "cre": 983,
      "vers": 984,
      "tun": 985,
      "saturday": 986,
      "cy": 987,
      "beach": 988,
      "whole": 989,
      "lovely": 990,
      "welcome": 991,
      "sent": 992,
      "taking": 993,
      "sim": 994,
      "kids": 995,
      "forgot": 996,
      "cook": 997,
      "seen": 998,
      "kinda": 999,
      "wear": 1000,
      "ces": 1001,
      "following": 1002,
      "news": 1003,
      "guy": 1004,
      "rock": 1005,
      "ls": 1006,
      "dec": 1007,
      "amer": 1008,
      "crazy": 1009,
      "fall": 1010,
      "pri": 1011,
      "comput": 1012,
      "high": 1013,
      "hopefully": 1014,
      "jun": 1015,
      "pm": 1016,
      "fly": 1017,
      "says": 1018,
      "cong": 1019,
      "took": 1020,
      "both": 1021,
      "blog": 1022,
      "own": 1023,
      "true": 1024,
      "py": 1025,
      "followers": 1026,
      "soo": 1027,
      "cuz": 1028,
      "fan": 1029,
      "not_to": 1030,
      "pick": 1031,
      "years": 1032,
      "lly": 1033,
      "cti": 1034,
      "idea": 1035,
      "chill": 1036,
      "town": 1037,
      "else": 1038,
      "fect": 1039,
      "woo": 1040,
      "ring": 1041,
      "ks": 1042,
      "bring": 1043,
      "link": 1044,
      "congr": 1045,
      "lots": 1046,
      "awww": 1047,
      "jon": 1048,
      "eee": 1049,
      "proble": 1050,
      "vid": 1051,
      "chi": 1052,
      "dog": 1053,
      "wasn": 1054,
      "fail": 1055,
      "sign": 1056,
      "ush": 1057,
      "lay": 1058,
      "course": 1059,
      "pics": 1060,
      "girls": 1061,
      "either": 1062,
      "iting": 1063,
      "sitting": 1064,
      "computer": 1065,
      "mat": 1066,
      "once": 1067,
      "shopping": 1068,
      "leaving": 1069,
      "cking": 1070,
      "dar": 1071,
      "black": 1072,
      "hello": 1073,
      "ney": 1074,
      "concer": 1075,
      "hurt": 1076,
      "nite": 1077,
      "ling": 1078,
      "box": 1079,
      "trip": 1080,
      "not_one": 1081,
      "feels": 1082,
      "internet": 1083,
      "bri": 1084,
      "twi": 1085,
      "rs": 1086,
      "cli": 1087,
      "cess": 1088,
      "cial": 1089,
      "ards": 1090,
      "mag": 1091,
      "lear": 1092,
      "seems": 1093,
      "alone": 1094,
      "btw": 1095,
      "space": 1096,
      "couldn": 1097,
      "fl": 1098,
      "ticket": 1099,
      "office": 1100,
      "char": 1101,
      "clu": 1102,
      "esday": 1103,
      "talking": 1104,
      "hung": 1105,
      "dif": 1106,
      "ana": 1107,
      "defin": 1108,
      "headache": 1109,
      "heard": 1110,
      "tried": 1111,
      "watched": 1112,
      "stuck": 1113,
      "lma": 1114,
      "goodnight": 1115,
      "lin": 1116,
      "needs": 1117,
      "itch": 1118,
      "loved": 1119,
      "change": 1120,
      "ught": 1121,
      "favor": 1122,
      "gets": 1123,
      "mac": 1124,
      "not_good": 1125,
      "ng": 1126,
      "lad": 1127,
      "started": 1128,
      "sw": 1129,
      "rible": 1130,
      "cal": 1131,
      "lap": 1132,
      "text": 1133,
      "interest": 1134,
      "fix": 1135,
      "noon": 1136,
      "dro": 1137,
      "pay": 1138,
      "seeing": 1139,
      "walk": 1140,
      "catch": 1141,
      "wont": 1142,
      "sou": 1143,
      "suck": 1144,
      "ared": 1145,
      "drive": 1146,
      "eas": 1147,
      "move": 1148,
      "vot": 1149,
      "vi": 1150,
      "ions": 1151,
      "kk": 1152,
      "dra": 1153,
      "mp": 1154,
      "ations": 1155,
      "season": 1156,
      "bra": 1157,
      "den": 1158,
      "quite": 1159,
      "suppo": 1160,
      "fine": 1161,
      "ahhh": 1162,
      "ummy": 1163,
      "reply": 1164,
      "shower": 1165,
      "online": 1166,
      "mit": 1167,
      "dead": 1168,
      "not_be": 1169,
      "engl": 1170,
      "stra": 1171,
      "site": 1172,
      "goes": 1173,
      "awake": 1174,
      "breakfast": 1175,
      "ross": 1176,
      "email": 1177,
      "lon": 1178,
      "smi": 1179,
      "boring": 1180,
      "mid": 1181,
      "water": 1182,
      "cell": 1183,
      "word": 1184,
      "yo": 1185,
      "ately": 1186,
      "ird": 1187,
      "facebook": 1188,
      "tour": 1189,
      "seriously": 1190,
      "ped": 1191,
      "frea": 1192,
      "using": 1193,
      "told": 1194,
      "lmao": 1195,
      "ep": 1196,
      "pod": 1197,
      "dou": 1198,
      "spend": 1199,
      "cover": 1200,
      "city": 1201,
      "mc": 1202,
      "sol": 1203,
      "lucky": 1204,
      "oud": 1205,
      "kin": 1206,
      "sunny": 1207,
      "str": 1208,
      "sen": 1209,
      "minutes": 1210,
      "ried": 1211,
      "mr": 1212,
      "broke": 1213,
      "ages": 1214,
      "bought": 1215,
      "not_wait": 1216,
      "cup": 1217,
      "key": 1218,
      "ath": 1219,
      "ici": 1220,
      "quest": 1221,
      "june": 1222,
      "starting": 1223,
      "called": 1224,
      "qui": 1225,
      "cat": 1226,
      "concert": 1227,
      "asl": 1228,
      "stead": 1229,
      "dude": 1230,
      "gen": 1231,
      "ris": 1232,
      "sister": 1233,
      "crap": 1234,
      "lic": 1235,
      "ight": 1236,
      "anyway": 1237,
      "update": 1238,
      "works": 1239,
      "hungry": 1240,
      "reason": 1241,
      "sty": 1242,
      "store": 1243,
      "colle": 1244,
      "form": 1245,
      "cing": 1246,
      "asleep": 1247,
      "afternoon": 1248,
      "arch": 1249,
      "nap": 1250,
      "yea": 1251,
      "jeal": 1252,
      "oooooooo": 1253,
      "goo": 1254,
      "ww": 1255,
      "sta": 1256,
      "secon": 1257,
      "sleeping": 1258,
      "favorite": 1259,
      "led": 1260,
      "bout": 1261,
      "grand": 1262,
      "perfect": 1263,
      "instead": 1264,
      "xd": 1265,
      "ves": 1266,
      "laugh": 1267,
      "scre": 1268,
      "comple": 1269,
      "pan": 1270,
      "gether": 1271,
      "ned": 1272,
      "sigh": 1273,
      "tube": 1274,
      "lax": 1275,
      "fair": 1276,
      "jealous": 1277,
      "near": 1278,
      "camp": 1279,
      "heading": 1280,
      "dress": 1281,
      "cream": 1282,
      "ject": 1283,
      "ced": 1284,
      "meeting": 1285,
      "cus": 1286,
      "ahh": 1287,
      "rent": 1288,
      "album": 1289,
      "ven": 1290,
      "fortun": 1291,
      "cent": 1292,
      "dear": 1293,
      "mmmm": 1294,
      "gradu": 1295,
      "sex": 1296,
      "enjoying": 1297,
      "definite": 1298,
      "sore": 1299,
      "sal": 1300,
      "holi": 1301,
      "kick": 1302,
      "pet": 1303,
      "pool": 1304,
      "exams": 1305,
      "together": 1306,
      "hoping": 1307,
      "short": 1308,
      "mark": 1309,
      "chat": 1310,
      "wonderful": 1311,
      "yyyy": 1312,
      "not_get": 1313,
      "mov": 1314,
      "definitely": 1315,
      "berry": 1316,
      "relax": 1317,
      "running": 1318,
      "die": 1319,
      "roll": 1320,
      "dow": 1321,
      "mach": 1322,
      "pray": 1323,
      "cast": 1324,
      "ars": 1325,
      "moment": 1326,
      "swi": 1327,
      "blu": 1328,
      "chur": 1329,
      "slow": 1330,
      "rad": 1331,
      "sometimes": 1332,
      "visit": 1333,
      "fucking": 1334,
      "zed": 1335,
      "died": 1336,
      "goin": 1337,
      "boys": 1338,
      "write": 1339,
      "ual": 1340,
      "gin": 1341,
      "burn": 1342,
      "ian": 1343,
      "bby": 1344,
      "urs": 1345,
      "fire": 1346,
      "couple": 1347,
      "close": 1348,
      "flu": 1349,
      "revis": 1350,
      "comes": 1351,
      "gle": 1352,
      "means": 1353,
      "blood": 1354,
      "cept": 1355,
      "join": 1356,
      "movies": 1357,
      "ital": 1358,
      "pat": 1359,
      "church": 1360,
      "problem": 1361,
      "mum": 1362,
      "congrats": 1363,
      "fil": 1364,
      "prom": 1365,
      "point": 1366,
      "worth": 1367,
      "figu": 1368,
      "ries": 1369,
      "vac": 1370,
      "tain": 1371,
      "ming": 1372,
      "xxx": 1373,
      "chick": 1374,
      "iso": 1375,
      "conf": 1376,
      "laptop": 1377,
      "final": 1378,
      "loves": 1379,
      "eyes": 1380,
      "fing": 1381,
      "order": 1382,
      "evening": 1383,
      "parent": 1384,
      "offici": 1385,
      "tea": 1386,
      "weird": 1387,
      "dance": 1388,
      "poss": 1389,
      "mood": 1390,
      "months": 1391,
      "appo": 1392,
      "youtube": 1393,
      "ute": 1394,
      "account": 1395,
      "ppl": 1396,
      "download": 1397,
      "ane": 1398,
      "homework": 1399,
      "met": 1400,
      "por": 1401,
      "via": 1402,
      "green": 1403,
      "ctor": 1404,
      "num": 1405,
      "cele": 1406,
      "uk": 1407,
      "chee": 1408,
      "pra": 1409,
      "happened": 1410,
      "gym": 1411,
      "unfortun": 1412,
      "choco": 1413,
      "cake": 1414,
      "reali": 1415,
      "shine": 1416,
      "anno": 1417,
      "gar": 1418,
      "lie": 1419,
      "shir": 1420,
      "sid": 1421,
      "math": 1422,
      "broken": 1423,
      "hoo": 1424,
      "lil": 1425,
      "songs": 1426,
      "page": 1427,
      "vice": 1428,
      "ipod": 1429,
      "ale": 1430,
      "ko": 1431,
      "tou": 1432,
      "not_sure": 1433,
      "gard": 1434,
      "rrrr": 1435,
      "wt": 1436,
      "possi": 1437,
      "fb": 1438,
      "train": 1439,
      "ssss": 1440,
      "park": 1441,
      "second": 1442,
      "tic": 1443,
      "inst": 1444,
      "interesting": 1445,
      "aaa": 1446,
      "english": 1447,
      "agree": 1448,
      "comment": 1449,
      "bat": 1450,
      "seem": 1451,
      "differ": 1452,
      "writing": 1453,
      "tickets": 1454,
      "chang": 1455,
      "kit": 1456,
      "iness": 1457,
      "loving": 1458,
      "ont": 1459,
      "studying": 1460,
      "annoy": 1461,
      "sus": 1462,
      "not_going": 1463,
      "understand": 1464,
      "web": 1465,
      "flo": 1466,
      "ters": 1467,
      "squ": 1468,
      "shop": 1469,
      "episo": 1470,
      "und": 1471,
      "mb": 1472,
      "rand": 1473,
      "thro": 1474,
      "gas": 1475,
      "window": 1476,
      "past": 1477,
      "sub": 1478,
      "upload": 1479,
      "not_in": 1480,
      "ka": 1481,
      "ade": 1482,
      "team": 1483,
      "ren": 1484,
      "jonas": 1485,
      "ker": 1486,
      "uring": 1487,
      "london": 1488,
      "ride": 1489,
      "supposed": 1490,
      "knew": 1491,
      "moon": 1492,
      "complete": 1493,
      "tie": 1494,
      "answer": 1495,
      "mmm": 1496,
      "xoxo": 1497,
      "thurs": 1498,
      "fli": 1499,
      "wedding": 1500,
      "reci": 1501,
      "chocolate": 1502,
      "search": 1503,
      "story": 1504,
      "moving": 1505,
      "bot": 1506,
      "os": 1507,
      "rist": 1508,
      "worst": 1509,
      "parents": 1510,
      "ob": 1511,
      "smile": 1512,
      "flight": 1513,
      "fell": 1514,
      "enter": 1515,
      "ue": 1516,
      "wishing": 1517,
      "saying": 1518,
      "gor": 1519,
      "bless": 1520,
      "three": 1521,
      "unk": 1522,
      "ills": 1523,
      "card": 1524,
      "cd": 1525,
      "uni": 1526,
      "sleepy": 1527,
      "ition": 1528,
      "gest": 1529,
      "awards": 1530,
      "cted": 1531,
      "beat": 1532,
      "lady": 1533,
      "forget": 1534,
      "aren": 1535,
      "board": 1536,
      "power": 1537,
      "fit": 1538,
      "unfortunately": 1539,
      "mer": 1540,
      "hold": 1541,
      "depress": 1542,
      "driving": 1543,
      "ina": 1544,
      "tweeting": 1545,
      "tory": 1546,
      "mal": 1547,
      "date": 1548,
      "wing": 1549,
      "comm": 1550,
      "upset": 1551,
      "ult": 1552,
      "yu": 1553,
      "cos": 1554,
      "yep": 1555,
      "ist": 1556,
      "foot": 1557,
      "pot": 1558,
      "sle": 1559,
      "ised": 1560,
      "touch": 1561,
      "eye": 1562,
      "vel": 1563,
      "op": 1564,
      "recor": 1565,
      "res": 1566,
      "door": 1567,
      "appoint": 1568,
      "val": 1569,
      "tee": 1570,
      "kno": 1571,
      "paper": 1572,
      "words": 1573,
      "ug": 1574,
      "mas": 1575,
      "pictures": 1576,
      "road": 1577,
      "hhh": 1578,
      "cleaning": 1579,
      "ban": 1580,
      "hea": 1581,
      "horrible": 1582,
      "leg": 1583,
      "sco": 1584,
      "ils": 1585,
      "gave": 1586,
      "quick": 1587,
      "mou": 1588,
      "illy": 1589,
      "gan": 1590,
      "wit": 1591,
      "due": 1592,
      "dreams": 1593,
      "ons": 1594,
      "drinking": 1595,
      "easy": 1596,
      "ali": 1597,
      "sunshine": 1598,
      "college": 1599,
      "ship": 1600,
      "project": 1601,
      "iled": 1602,
      "garden": 1603,
      "mic": 1604,
      "tan": 1605,
      "chance": 1606,
      "ey": 1607,
      "eeps": 1608,
      "case": 1609,
      "ground": 1610,
      "brow": 1611,
      "prof": 1612,
      "wouldn": 1613,
      "apparent": 1614,
      "produ": 1615,
      "ky": 1616,
      "stick": 1617,
      "xxxx": 1618,
      "throat": 1619,
      "worse": 1620,
      "sive": 1621,
      "nat": 1622,
      "brit": 1623,
      "dun": 1624,
      "jor": 1625,
      "fight": 1626,
      "blue": 1627,
      "ience": 1628,
      "special": 1629,
      "sis": 1630,
      "hahah": 1631,
      "tuesday": 1632,
      "lier": 1633,
      "ica": 1634,
      "holiday": 1635,
      "bday": 1636,
      "worry": 1637,
      "cially": 1638,
      "longer": 1639,
      "mis": 1640,
      "apple": 1641,
      "ines": 1642,
      "stre": 1643,
      "mil": 1644,
      "rather": 1645,
      "bud": 1646,
      "slept": 1647,
      "whats": 1648,
      "miley": 1649,
      "ics": 1650,
      "safe": 1651,
      "deli": 1652,
      "plus": 1653,
      "stor": 1654,
      "scared": 1655,
      "fm": 1656,
      "iiii": 1657,
      "apparently": 1658,
      "gover": 1659,
      "small": 1660,
      "wtf": 1661,
      "tur": 1662,
      "rid": 1663,
      "hugs": 1664,
      "cous": 1665,
      "doesnt": 1666,
      "camer": 1667,
      "expe": 1668,
      "absol": 1669,
      "lar": 1670,
      "hum": 1671,
      "wash": 1672,
      "pop": 1673,
      "ended": 1674,
      "andy": 1675,
      "fish": 1676,
      "father": 1677,
      "cannot": 1678,
      "eu": 1679,
      "huge": 1680,
      "kn": 1681,
      "lets": 1682,
      "vs": 1683,
      "forever": 1684,
      "webs": 1685,
      "white": 1686,
      "spent": 1687,
      "event": 1688,
      "dv": 1689,
      "ouch": 1690,
      "jam": 1691,
      "mtv": 1692,
      "tex": 1693,
      "shame": 1694,
      "teach": 1695,
      "sme": 1696,
      "han": 1697,
      "stress": 1698,
      "ooooo": 1699,
      "glass": 1700,
      "ign": 1701,
      "updates": 1702,
      "myspace": 1703,
      "rip": 1704,
      "pur": 1705,
      "voice": 1706,
      "grow": 1707,
      "thinks": 1708,
      "ev": 1709,
      "warm": 1710,
      "plans": 1711,
      "pleas": 1712,
      "babe": 1713,
      "earlier": 1714,
      "graph": 1715,
      "bitch": 1716,
      "sist": 1717,
      "conne": 1718,
      "pup": 1719,
      "lazy": 1720,
      "vacation": 1721,
      "vote": 1722,
      "decid": 1723,
      "ants": 1724,
      "wondering": 1725,
      "thx": 1726,
      "crash": 1727,
      "remind": 1728,
      "david": 1729,
      "hanging": 1730,
      "sky": 1731,
      "child": 1732,
      "wall": 1733,
      "fresh": 1734,
      "piss": 1735,
      "gun": 1736,
      "radio": 1737,
      "spo": 1738,
      "ef": 1739,
      "pie": 1740,
      "beer": 1741,
      "round": 1742,
      "celebr": 1743,
      "shirt": 1744,
      "ift": 1745,
      "luv": 1746,
      "idk": 1747,
      "enti": 1748,
      "ran": 1749,
      "fant": 1750,
      "ire": 1751,
      "igh": 1752,
      "bly": 1753,
      "bow": 1754,
      "dm": 1755,
      "message": 1756,
      "website": 1757,
      "aust": 1758,
      "shows": 1759,
      "thursday": 1760,
      "surpr": 1761,
      "att": 1762,
      "fic": 1763,
      "during": 1764,
      "nope": 1765,
      "kers": 1766,
      "ering": 1767,
      "absolute": 1768,
      "google": 1769,
      "ond": 1770,
      "support": 1771,
      "not_have": 1772,
      "present": 1773,
      "different": 1774,
      "learn": 1775,
      "ben": 1776,
      "tha": 1777,
      "pizz": 1778,
      "espe": 1779,
      "bbq": 1780,
      "july": 1781,
      "ele": 1782,
      "chan": 1783,
      "appreci": 1784,
      "lame": 1785,
      "books": 1786,
      "fans": 1787,
      "bt": 1788,
      "hosp": 1789,
      "hrs": 1790,
      "issu": 1791,
      "sadly": 1792,
      "tel": 1793,
      "heal": 1794,
      "current": 1795,
      "looked": 1796,
      "hee": 1797,
      "fat": 1798,
      "screen": 1799,
      "number": 1800,
      "sims": 1801,
      "turned": 1802,
      "especially": 1803,
      "deal": 1804,
      "pack": 1805,
      "nick": 1806,
      "tem": 1807,
      "mate": 1808,
      "exact": 1809,
      "front": 1810,
      "fren": 1811,
      "arri": 1812,
      "inv": 1813,
      "lone": 1814,
      "law": 1815,
      "shall": 1816,
      "joh": 1817,
      "chicken": 1818,
      "fab": 1819,
      "yummy": 1820,
      "havent": 1821,
      "figure": 1822,
      "tech": 1823,
      "hahahaha": 1824,
      "mix": 1825,
      "allow": 1826,
      "cont": 1827,
      "each": 1828,
      "def": 1829,
      "followfriday": 1830,
      "random": 1831,
      "stomach": 1832,
      "tist": 1833,
      "fest": 1834,
      "sell": 1835,
      "inside": 1836,
      "jus": 1837,
      "vy": 1838,
      "mins": 1839,
      "meant": 1840,
      "fact": 1841,
      "camera": 1842,
      "alright": 1843,
      "hy": 1844,
      "games": 1845,
      "cred": 1846,
      "pizza": 1847,
      "cid": 1848,
      "cas": 1849,
      "memor": 1850,
      "dang": 1851,
      "van": 1852,
      "plain": 1853,
      "uuuu": 1854,
      "wife": 1855,
      "not_fun": 1856,
      "airport": 1857,
      "cheese": 1858,
      "crying": 1859,
      "episode": 1860,
      "yup": 1861,
      "save": 1862,
      "bike": 1863,
      "usted": 1864,
      "liked": 1865,
      "club": 1866,
      "except": 1867,
      "cri": 1868,
      "packing": 1869,
      "officially": 1870,
      "photos": 1871,
      "lla": 1872,
      "gosh": 1873,
      "boyfriend": 1874,
      "geous": 1875,
      "ican": 1876,
      "smell": 1877,
      "lent": 1878,
      "sam": 1879,
      "argh": 1880,
      "rainy": 1881,
      "ctive": 1882,
      "llen": 1883,
      "nie": 1884,
      "felt": 1885,
      "graduation": 1886,
      "cs": 1887,
      "bas": 1888,
      "nin": 1889,
      "loo": 1890,
      "resp": 1891,
      "ima": 1892,
      "shoes": 1893,
      "wedn": 1894,
      "hmmm": 1895,
      "decided": 1896,
      "sn": 1897,
      "hubby": 1898,
      "hind": 1899,
      "doctor": 1900,
      "exper": 1901,
      "proud": 1902,
      "ier": 1903,
      "que": 1904,
      "hug": 1905,
      "addic": 1906,
      "fy": 1907,
      "worked": 1908,
      "brothers": 1909,
      "lia": 1910,
      "finals": 1911,
      "twilight": 1912,
      "gig": 1913,
      "lies": 1914,
      "kiss": 1915,
      "dge": 1916,
      "pull": 1917,
      "vill": 1918,
      "fever": 1919,
      "dia": 1920,
      "whate": 1921,
      "john": 1922,
      "wine": 1923,
      "practi": 1924,
      "bee": 1925,
      "sold": 1926,
      "deck": 1927,
      "played": 1928,
      "interview": 1929,
      "sum": 1930,
      "gee": 1931,
      "mel": 1932,
      "rele": 1933,
      "needed": 1934,
      "hospital": 1935,
      "ppy": 1936,
      "ilar": 1937,
      "umb": 1938,
      "absolutely": 1939,
      "throw": 1940,
      "not_sleep": 1941,
      "ford": 1942,
      "yourself": 1943,
      "hah": 1944,
      "living": 1945,
      "share": 1946,
      "tay": 1947,
      "mention": 1948,
      "gorgeous": 1949,
      "uh": 1950,
      "vir": 1951,
      "pink": 1952,
      "oun": 1953,
      "wednesday": 1954,
      "french": 1955,
      "cross": 1956,
      "len": 1957,
      "bath": 1958,
      "ulous": 1959,
      "rel": 1960,
      "mes": 1961,
      "wood": 1962,
      "ann": 1963,
      "peace": 1964,
      "not_go": 1965,
      "exciting": 1966,
      "shoot": 1967,
      "install": 1968,
      "pub": 1969,
      "keeps": 1970,
      "ila": 1971,
      "taken": 1972,
      "ild": 1973,
      "wishes": 1974,
      "disappoint": 1975,
      "ughter": 1976,
      "possible": 1977,
      "dire": 1978,
      "exha": 1979,
      "rew": 1980,
      "lonely": 1981,
      "business": 1982,
      "yyy": 1983,
      "apart": 1984,
      "ending": 1985,
      "guit": 1986,
      "eh": 1987,
      "sar": 1988,
      "deser": 1989,
      "mode": 1990,
      "note": 1991,
      "iz": 1992,
      "bon": 1993,
      "sand": 1994,
      "drunk": 1995,
      "emp": 1996,
      "mill": 1997,
      "zzzz": 1998,
      "not_feeling": 1999,
      "arm": 2000,
      "scary": 2001,
      "ties": 2002,
      "thes": 2003,
      "starts": 2004,
      "log": 2005,
      "service": 2006,
      "ments": 2007,
      "not_working": 2008,
      "feet": 2009,
      "appe": 2010,
      "poo": 2011,
      "hates": 2012,
      "vol": 2013,
      "bucks": 2014,
      "gay": 2015,
      "exactly": 2016,
      "ham": 2017,
      "ray": 2018,
      "goodbye": 2019,
      "along": 2020,
      "grou": 2021,
      "det": 2022,
      "realized": 2023,
      "happens": 2024,
      "thin": 2025,
      "behind": 2026,
      "host": 2027,
      "speak": 2028,
      "vent": 2029,
      "ical": 2030,
      "pes": 2031,
      "wat": 2032,
      "lli": 2033,
      "giving": 2034,
      "question": 2035,
      "west": 2036,
      "film": 2037,
      "edu": 2038,
      "ada": 2039,
      "knows": 2040,
      "track": 2041,
      "trans": 2042,
      "whatever": 2043,
      "ative": 2044,
      "gut": 2045,
      "not_idea": 2046,
      "cious": 2047,
      "dying": 2048,
      "company": 2049,
      "guitar": 2050,
      "walking": 2051,
      "table": 2052,
      "aller": 2053,
      "although": 2054,
      "cali": 2055,
      "waking": 2056,
      "rob": 2057,
      "vegas": 2058,
      "gging": 2059,
      "astic": 2060,
      "annoying": 2061,
      "not_like": 2062,
      "eeeeeeee": 2063,
      "tummy": 2064,
      "shut": 2065,
      "lose": 2066,
      "everybody": 2067,
      "yours": 2068,
      "ohh": 2069,
      "alot": 2070,
      "jum": 2071,
      "ses": 2072,
      "posit": 2073,
      "extra": 2074,
      "dark": 2075,
      "vic": 2076,
      "burnt": 2077,
      "isnt": 2078,
      "clothes": 2079,
      "version": 2080,
      "dat": 2081,
      "gettin": 2082,
      "health": 2083,
      "not_been": 2084,
      "resu": 2085,
      "ents": 2086,
      "dio": 2087,
      "plane": 2088,
      "dle": 2089,
      "sli": 2090,
      "death": 2091,
      "fill": 2092,
      "cc": 2093,
      "relaxing": 2094,
      "mming": 2095,
      "killing": 2096,
      "state": 2097,
      "jer": 2098,
      "gram": 2099,
      "nights": 2100,
      "street": 2101,
      "fantastic": 2102,
      "col": 2103,
      "bay": 2104,
      "ado": 2105,
      "minute": 2106,
      "not_you": 2107,
      "mob": 2108,
      "ession": 2109,
      "ano": 2110,
      "tween": 2111,
      "bag": 2112,
      "imag": 2113,
      "huh": 2114,
      "bal": 2115,
      "bank": 2116,
      "san": 2117,
      "ror": 2118,
      "main": 2119,
      "pc": 2120,
      "market": 2121,
      "aint": 2122,
      "enjoyed": 2123,
      "wind": 2124,
      "non": 2125,
      "hat": 2126,
      "videos": 2127,
      "passed": 2128,
      "clear": 2129,
      "dig": 2130,
      "yum": 2131,
      "terrible": 2132,
      "vious": 2133,
      "record": 2134,
      "posted": 2135,
      "ahead": 2136,
      "lan": 2137,
      "pal": 2138,
      "brain": 2139,
      "straight": 2140,
      "cough": 2141,
      "coz": 2142,
      "shi": 2143,
      "trou": 2144,
      "spot": 2145,
      "mommy": 2146,
      "between": 2147,
      "spir": 2148,
      "staying": 2149,
      "mall": 2150,
      "ki": 2151,
      "single": 2152,
      "dest": 2153,
      "ield": 2154,
      "ited": 2155,
      "lakers": 2156,
      "build": 2157,
      "daughter": 2158,
      "country": 2159,
      "mothers": 2160,
      "revision": 2161,
      "color": 2162,
      "singing": 2163,
      "hangover": 2164,
      "lately": 2165,
      "heat": 2166,
      "shar": 2167,
      "ava": 2168,
      "wearing": 2169,
      "dies": 2170,
      "gust": 2171,
      "indeed": 2172,
      "history": 2173,
      "asked": 2174,
      "ooh": 2175,
      "shin": 2176,
      "shot": 2177,
      "chu": 2178,
      "ext": 2179,
      "ging": 2180,
      "bummed": 2181,
      "jack": 2182,
      "headed": 2183,
      "orts": 2184,
      "ork": 2185,
      "fml": 2186,
      "cheer": 2187,
      "trail": 2188,
      "nel": 2189,
      "hus": 2190,
      "smo": 2191,
      "kat": 2192,
      "doll": 2193,
      "usually": 2194,
      "ings": 2195,
      "hon": 2196,
      "fut": 2197,
      "nose": 2198,
      "cakes": 2199,
      "changed": 2200,
      "major": 2201,
      "dvd": 2202,
      "sug": 2203,
      "profile": 2204,
      "cident": 2205,
      "not_it": 2206,
      "trouble": 2207,
      "fla": 2208,
      "cru": 2209,
      "hotel": 2210,
      "freaking": 2211,
      "hay": 2212,
      "llll": 2213,
      "ically": 2214,
      "daddy": 2215,
      "rd": 2216,
      "completely": 2217,
      "bloody": 2218,
      "nobody": 2219,
      "awful": 2220,
      "nut": 2221,
      "logy": 2222,
      "dogs": 2223,
      "prin": 2224,
      "hav": 2225,
      "sss": 2226,
      "mend": 2227,
      "feed": 2228,
      "bun": 2229,
      "nia": 2230,
      "type": 2231,
      "south": 2232,
      "not_work": 2233,
      "ffic": 2234,
      "begin": 2235,
      "unes": 2236,
      "watchin": 2237,
      "ville": 2238,
      "moved": 2239,
      "bc": 2240,
      "kar": 2241,
      "sexy": 2242,
      "cousin": 2243,
      "worried": 2244,
      "disappointed": 2245,
      "none": 2246,
      "mcfly": 2247,
      "fingers": 2248,
      "grade": 2249,
      "ruin": 2250,
      "euro": 2251,
      "currently": 2252,
      "rece": 2253,
      "chris": 2254,
      "taylor": 2255,
      "oc": 2256,
      "blah": 2257,
      "design": 2258,
      "onto": 2259,
      "rrr": 2260,
      "austra": 2261,
      "others": 2262,
      "bright": 2263,
      "proper": 2264,
      "chic": 2265,
      "yr": 2266,
      "traffic": 2267,
      "disney": 2268,
      "closed": 2269,
      "somewhere": 2270,
      "nyc": 2271,
      "pissed": 2272,
      "dunno": 2273,
      "cam": 2274,
      "caught": 2275,
      "nearly": 2276,
      "four": 2277,
      "spending": 2278,
      "tiv": 2279,
      "not_on": 2280,
      "spam": 2281,
      "exhausted": 2282,
      "congrat": 2283,
      "storm": 2284,
      "mobile": 2285,
      "info": 2286,
      "joe": 2287,
      "double": 2288,
      "matter": 2289,
      "mouth": 2290,
      "nah": 2291,
      "fixed": 2292,
      "raid": 2293,
      "sort": 2294,
      "young": 2295,
      "itunes": 2296,
      "hands": 2297,
      "wk": 2298,
      "atta": 2299,
      "woman": 2300,
      "noo": 2301,
      "magic": 2302,
      "lm": 2303,
      "neigh": 2304,
      "suggest": 2305,
      "ler": 2306,
      "chillin": 2307,
      "milk": 2308,
      "group": 2309,
      "problems": 2310,
      "gggg": 2311,
      "takes": 2312,
      "bf": 2313,
      "future": 2314,
      "ili": 2315,
      "demi": 2316,
      "iced": 2317,
      "maths": 2318,
      "blast": 2319,
      "wet": 2320,
      "fed": 2321,
      "hilar": 2322,
      "shout": 2323,
      "ftw": 2324,
      "fro": 2325,
      "ener": 2326,
      "sale": 2327,
      "desk": 2328,
      "sooooo": 2329,
      "wise": 2330,
      "fox": 2331,
      "fol": 2332,
      "theres": 2333,
      "suc": 2334,
      "jen": 2335,
      "quiet": 2336,
      "husband": 2337,
      "normal": 2338,
      "kate": 2339,
      "windows": 2340,
      "bour": 2341,
      "honey": 2342,
      "silly": 2343,
      "stal": 2344,
      "ston": 2345,
      "tweetdeck": 2346,
      "not_know": 2347,
      "apo": 2348,
      "manag": 2349,
      "not_me": 2350,
      "appreciate": 2351,
      "stopped": 2352,
      "drop": 2353,
      "bio": 2354,
      "sna": 2355,
      "neck": 2356,
      "christ": 2357,
      "usual": 2358,
      "cap": 2359,
      "match": 2360,
      "gri": 2361,
      "commend": 2362,
      "bill": 2363,
      "not_looking": 2364,
      "bull": 2365,
      "base": 2366,
      "cting": 2367,
      "hew": 2368,
      "ud": 2369,
      "iling": 2370,
      "rus": 2371,
      "ends": 2372,
      "not_bad": 2373,
      "etc": 2374,
      "secre": 2375,
      "blackberry": 2376,
      "training": 2377,
      "consid": 2378,
      "epic": 2379,
      "sense": 2380,
      "soft": 2381,
      "accident": 2382,
      "swimming": 2383,
      "pin": 2384,
      "aaaaaaaa": 2385,
      "contin": 2386,
      "practice": 2387,
      "recommend": 2388,
      "american": 2389,
      "laying": 2390,
      "availa": 2391,
      "dancing": 2392,
      "doin": 2393,
      "background": 2394,
      "puppy": 2395,
      "tat": 2396,
      "flat": 2397,
      "planning": 2398,
      "adam": 2399,
      "talent": 2400,
      "pair": 2401,
      "mini": 2402,
      "middle": 2403,
      "sea": 2404,
      "review": 2405,
      "tery": 2406,
      "thru": 2407,
      "classes": 2408,
      "hone": 2409,
      "spring": 2410,
      "sity": 2411,
      "tit": 2412,
      "congratul": 2413,
      "hood": 2414,
      "xi": 2415,
      "ising": 2416,
      "square": 2417,
      "mont": 2418,
      "bummer": 2419,
      "not_but": 2420,
      "hilarious": 2421,
      "dom": 2422,
      "phones": 2423,
      "certain": 2424,
      "available": 2425,
      "schedu": 2426,
      "jk": 2427,
      "writ": 2428,
      "calling": 2429,
      "chel": 2430,
      "import": 2431,
      "not_happy": 2432,
      "cancell": 2433,
      "doubt": 2434,
      "cher": 2435,
      "braz": 2436,
      "jay": 2437,
      "often": 2438,
      "gener": 2439,
      "ron": 2440,
      "degre": 2441,
      "series": 2442,
      "field": 2443,
      "nation": 2444,
      "oops": 2445,
      "hes": 2446,
      "yah": 2447,
      "expen": 2448,
      "inten": 2449,
      "rac": 2450,
      "ison": 2451,
      "seat": 2452,
      "favour": 2453,
      "peeps": 2454,
      "stat": 2455,
      "hills": 2456,
      "stri": 2457,
      "lead": 2458,
      "taste": 2459,
      "bel": 2460,
      "alex": 2461,
      "hanna": 2462,
      "copy": 2463,
      "laund": 2464,
      "failed": 2465,
      "prob": 2466,
      "legs": 2467,
      "oooooo": 2468,
      "france": 2469,
      "success": 2470,
      "not_as": 2471,
      "conta": 2472,
      "skin": 2473,
      "trek": 2474,
      "ior": 2475,
      "ature": 2476,
      "paid": 2477,
      "block": 2478,
      "miles": 2479,
      "thoughts": 2480,
      "ered": 2481,
      "eng": 2482,
      "lake": 2483,
      "dc": 2484,
      "dry": 2485,
      "hasn": 2486,
      "confused": 2487,
      "starbucks": 2488,
      "badly": 2489,
      "clou": 2490,
      "glasses": 2491,
      "code": 2492,
      "trailer": 2493,
      "push": 2494,
      "laundry": 2495,
      "teeth": 2496,
      "jes": 2497,
      "putting": 2498,
      "egg": 2499,
      "vous": 2500,
      "hero": 2501,
      "couldnt": 2502,
      "buddy": 2503,
      "bru": 2504,
      "verse": 2505,
      "strong": 2506,
      "followed": 2507,
      "shes": 2508,
      "brand": 2509,
      "yall": 2510,
      "race": 2511,
      "anim": 2512,
      "program": 2513,
      "ular": 2514,
      "chicago": 2515,
      "atl": 2516,
      "not_see": 2517,
      "dropped": 2518,
      "aun": 2519,
      "bother": 2520,
      "choice": 2521,
      "covered": 2522,
      "dnt": 2523,
      "arti": 2524,
      "dddd": 2525,
      "return": 2526,
      "gutted": 2527,
      "asking": 2528,
      "gold": 2529,
      "suppose": 2530,
      "cost": 2531,
      "sending": 2532,
      "station": 2533,
      "bare": 2534,
      "gro": 2535,
      "learning": 2536,
      "dentist": 2537,
      "knee": 2538,
      "anda": 2539,
      "bff": 2540,
      "emo": 2541,
      "anyways": 2542,
      "ahhhhh": 2543,
      "honest": 2544,
      "darn": 2545,
      "som": 2546,
      "loads": 2547,
      "button": 2548,
      "wasnt": 2549,
      "feelin": 2550,
      "helping": 2551,
      "spell": 2552,
      "flow": 2553,
      "sted": 2554,
      "cts": 2555,
      "australia": 2556,
      "nervous": 2557,
      "crack": 2558,
      "germany": 2559,
      "cancelled": 2560,
      "bug": 2561,
      "hm": 2562,
      "likes": 2563,
      "gged": 2564,
      "msn": 2565,
      "entire": 2566,
      "earth": 2567,
      "lines": 2568,
      "floor": 2569,
      "channel": 2570,
      "congratulations": 2571,
      "style": 2572,
      "kidding": 2573,
      "stud": 2574,
      "checking": 2575,
      "pee": 2576,
      "nic": 2577,
      "gue": 2578,
      "ded": 2579,
      "exc": 2580,
      "swine": 2581,
      "bunch": 2582,
      "depressed": 2583,
      "five": 2584,
      "shouldn": 2585,
      "ctions": 2586,
      "trend": 2587,
      "holy": 2588,
      "orig": 2589,
      "kay": 2590,
      "woot": 2591,
      "plz": 2592,
      "av": 2593,
      "ahhhh": 2594,
      "issues": 2595,
      "keeping": 2596,
      "bing": 2597,
      "not_let": 2598,
      "cky": 2599,
      "boss": 2600,
      "step": 2601,
      "thunder": 2602,
      "ador": 2603,
      "important": 2604,
      "afraid": 2605,
      "hr": 2606,
      "york": 2607,
      "extreme": 2608,
      "yard": 2609,
      "secret": 2610,
      "versity": 2611,
      "ustr": 2612,
      "impress": 2613,
      "ideas": 2614,
      "bird": 2615,
      "lat": 2616,
      "za": 2617,
      "scr": 2618,
      "falling": 2619,
      "kitty": 2620,
      "mart": 2621,
      "personal": 2622,
      "everyday": 2623,
      "tar": 2624,
      "cried": 2625,
      "hook": 2626,
      "ched": 2627,
      "ami": 2628,
      "twittering": 2629,
      "killed": 2630,
      "syste": 2631,
      "calls": 2632,
      "social": 2633,
      "buying": 2634,
      "somebody": 2635,
      "article": 2636,
      "xbox": 2637,
      "august": 2638,
      "allowed": 2639,
      "master": 2640,
      "island": 2641,
      "hannah": 2642,
      "coo": 2643,
      "hill": 2644,
      "unless": 2645,
      "finding": 2646,
      "bottle": 2647,
      "freakin": 2648,
      "howe": 2649,
      "ladies": 2650,
      "not_want": 2651,
      "midnight": 2652,
      "arrived": 2653,
      "lver": 2654,
      "ches": 2655,
      "allerg": 2656,
      "span": 2657,
      "become": 2658,
      "temp": 2659,
      "expensive": 2660,
      "nu": 2661,
      "rocks": 2662,
      "mass": 2663,
      "tori": 2664,
      "morow": 2665,
      "telling": 2666,
      "oooh": 2667,
      "danny": 2668,
      "not_fair": 2669,
      "jour": 2670,
      "promise": 2671,
      "area": 2672,
      "mama": 2673,
      "losing": 2674,
      "breaking": 2675,
      "stru": 2676,
      "lied": 2677,
      "delicious": 2678,
      "checked": 2679,
      "cree": 2680,
      "loud": 2681,
      "libr": 2682,
      "tooth": 2683,
      "tttt": 2684,
      "not_gonna": 2685,
      "lip": 2686,
      "tweeps": 2687,
      "however": 2688,
      "ol": 2689,
      "bear": 2690,
      "anywhere": 2691,
      "assign": 2692,
      "snow": 2693,
      "workout": 2694,
      "fra": 2695,
      "weight": 2696,
      "respon": 2697,
      "shift": 2698,
      "dep": 2699,
      "dir": 2700,
      "sni": 2701,
      "updated": 2702,
      "depressing": 2703,
      "jb": 2704,
      "swe": 2705,
      "ns": 2706,
      "ene": 2707,
      "cla": 2708,
      "happening": 2709,
      "bre": 2710,
      "against": 2711,
      "iv": 2712,
      "essay": 2713,
      "bell": 2714,
      "wis": 2715,
      "lov": 2716,
      "aha": 2717,
      "sey": 2718,
      "sunburn": 2719,
      "positive": 2720,
      "afford": 2721,
      "pants": 2722,
      "outta": 2723,
      "wro": 2724,
      "gotten": 2725,
      "joke": 2726,
      "tonite": 2727,
      "inclu": 2728,
      "favourite": 2729,
      "iron": 2730,
      "trust": 2731,
      "official": 2732,
      "wha": 2733,
      "not_believe": 2734,
      "loss": 2735,
      "appro": 2736,
      "max": 2737,
      "cats": 2738,
      "bey": 2739,
      "lack": 2740,
      "gal": 2741,
      "experience": 2742,
      "showing": 2743,
      "crappy": 2744,
      "energy": 2745,
      "stage": 2746,
      "finger": 2747,
      "thanx": 2748,
      "frustr": 2749,
      "poin": 2750,
      "opp": 2751,
      "pls": 2752,
      "price": 2753,
      "twice": 2754,
      "anti": 2755,
      "corre": 2756,
      "entertain": 2757,
      "misses": 2758,
      "tough": 2759,
      "studio": 2760,
      "brought": 2761,
      "wii": 2762,
      "fault": 2763,
      "cookies": 2764,
      "straw": 2765,
      "wards": 2766,
      "ged": 2767,
      "tive": 2768,
      "science": 2769,
      "ference": 2770,
      "cooking": 2771,
      "charac": 2772,
      "bang": 2773,
      "cheers": 2774,
      "sushi": 2775,
      "strange": 2776,
      "stayed": 2777,
      "empty": 2778,
      "folks": 2779,
      "mornin": 2780,
      "productive": 2781,
      "gunna": 2782,
      "butter": 2783,
      "roy": 2784,
      "file": 2785,
      "talked": 2786,
      "slight": 2787,
      "not_longer": 2788,
      "added": 2789,
      "cab": 2790,
      "public": 2791,
      "wrote": 2792,
      "ku": 2793,
      "north": 2794,
      "bble": 2795,
      "direct": 2796,
      "dden": 2797,
      "ator": 2798,
      "million": 2799,
      "america": 2800,
      "england": 2801,
      "library": 2802,
      "messages": 2803,
      "origin": 2804,
      "gur": 2805,
      "ws": 2806,
      "travel": 2807,
      "recent": 2808,
      "ida": 2809,
      "pper": 2810,
      "diet": 2811,
      "cudd": 2812,
      "mul": 2813,
      "tag": 2814,
      "zer": 2815,
      "brazil": 2816,
      "hehehe": 2817,
      "turning": 2818,
      "switch": 2819,
      "bert": 2820,
      "sometime": 2821,
      "excell": 2822,
      "ible": 2823,
      "tempt": 2824,
      "dumb": 2825,
      "local": 2826,
      "japan": 2827,
      "fave": 2828,
      "tions": 2829,
      "fort": 2830,
      "scri": 2831,
      "athon": 2832,
      "six": 2833,
      "kitch": 2834,
      "not_of": 2835,
      "piece": 2836,
      "report": 2837,
      "finale": 2838,
      "tran": 2839,
      "woohoo": 2840,
      "ply": 2841,
      "session": 2842,
      "vet": 2843,
      "psy": 2844,
      "velo": 2845,
      "not_for": 2846,
      "sie": 2847,
      "drinks": 2848,
      "corn": 2849,
      "media": 2850,
      "paris": 2851,
      "nc": 2852,
      "noticed": 2853,
      "zzy": 2854,
      "ith": 2855,
      "ities": 2856,
      "tweeted": 2857,
      "vor": 2858,
      "couch": 2859,
      "flor": 2860,
      "gift": 2861,
      "phew": 2862,
      "sel": 2863,
      "tmr": 2864,
      "butt": 2865,
      "follower": 2866,
      "lee": 2867,
      "cance": 2868,
      "alive": 2869,
      "organ": 2870,
      "idi": 2871,
      "release": 2872,
      "liter": 2873,
      "adorable": 2874,
      "ai": 2875,
      "suff": 2876,
      "nails": 2877,
      "tons": 2878,
      "imagine": 2879,
      "excellent": 2880,
      "women": 2881,
      "ordered": 2882,
      "kitchen": 2883,
      "soup": 2884,
      "swear": 2885,
      "tears": 2886,
      "prep": 2887,
      "player": 2888,
      "eeeee": 2889,
      "fle": 2890,
      "mare": 2891,
      "exp": 2892,
      "picked": 2893,
      "system": 2894,
      "not_at": 2895,
      "battery": 2896,
      "everywhere": 2897,
      "brilli": 2898,
      "obvious": 2899,
      "limit": 2900,
      "boat": 2901,
      "ived": 2902,
      "bread": 2903,
      "grandma": 2904,
      "crow": 2905,
      "machine": 2906,
      "nooo": 2907,
      "soc": 2908,
      "aster": 2909,
      "haps": 2910,
      "rol": 2911,
      "sweetie": 2912,
      "thn": 2913,
      "dammit": 2914,
      "gah": 2915,
      "stair": 2916,
      "kept": 2917,
      "ohhh": 2918,
      "drama": 2919,
      "moms": 2920,
      "ppin": 2921,
      "itting": 2922,
      "smart": 2923,
      "diffic": 2924,
      "aking": 2925,
      "jim": 2926,
      "canada": 2927,
      "matt": 2928,
      "phys": 2929,
      "cin": 2930,
      "brown": 2931,
      "loy": 2932,
      "expect": 2933,
      "fabulous": 2934,
      "holly": 2935,
      "geor": 2936,
      "soul": 2937,
      "not_way": 2938,
      "deep": 2939,
      "heh": 2940,
      "ryan": 2941,
      "delay": 2942,
      "goodness": 2943,
      "catching": 2944,
      "children": 2945,
      "lts": 2946,
      "ric": 2947,
      "harry": 2948,
      "lord": 2949,
      "swim": 2950,
      "barely": 2951,
      "speed": 2952,
      "perhaps": 2953,
      "brilliant": 2954,
      "ased": 2955,
      "weekends": 2956,
      "tenn": 2957,
      "washing": 2958,
      "size": 2959,
      "laughing": 2960,
      "craving": 2961,
      "turns": 2962,
      "flying": 2963,
      "coast": 2964,
      "sudden": 2965,
      "lou": 2966,
      "rap": 2967,
      "total": 2968,
      "grrr": 2969,
      "rained": 2970,
      "lmfa": 2971,
      "ial": 2972,
      "europe": 2973,
      "neighbor": 2974,
      "schedule": 2975,
      "twitters": 2976,
      "surprise": 2977,
      "given": 2978,
      "custom": 2979,
      "mt": 2980,
      "pit": 2981,
      "imma": 2982,
      "ders": 2983,
      "not_find": 2984,
      "hurting": 2985,
      "ggy": 2986,
      "ugly": 2987,
      "terri": 2988,
      "gery": 2989,
      "pon": 2990,
      "gers": 2991,
      "toast": 2992,
      "promo": 2993,
      "holidays": 2994,
      "sir": 2995,
      "evil": 2996,
      "treat": 2997,
      "unders": 2998,
      "incred": 2999
    },
    "merges": [
      [
        "i",
        "n"
      ],
      [
        "t",
        "h"
      ],
      [
        "a",
        "n"
      ],
      [
        "t",
        "o"
      ],
      [
        "e",
        "r"
      ],
      [
        "o",
        "u"
      ],
      [
        "in",
        "g"
      ],
      [
        "o",
        "n"
      ],
      [
        "r",
        "e"
      ],
      [
        "a",
        "t"
      ],
      [
        "n",
        "o"
      ],
      [
        "th",
        "e"
      ],
      [
        "i",
        "t"
      ],
      [
        "o",
        "r"
      ],
      [
        "s",
        "t"
      ],
      [
        "l",
        "l"
      ],
      [
        "m",
        "e"
      ],
      [
        "i",
        "s"
      ],
      [
        "h",
        "a"
      ],
      [
        "a",
        "y"
      ],
      [
        "e",
        "e"
      ],
      [
        "o",
        "o"
      ],
      [
        "v",
        "e"
      ],
      [
        "no",
        "t"
      ],
      [
        "y",
        "ou"
      ],
      [
        "an",
        "d"
      ],
      [
        "m",
        "y"
      ],
      [
        "l",
        "e"
      ],
      [
        "e",
        "d"
      ],
      [
        "a",
        "r"
      ],
      [
        "e",
        "n"
      ],
      [
        "s",
        "o"
      ],
      [
        "c",
        "h"
      ],
      [
        "a",
        "s"
      ],
      [
        "b",
        "e"
      ],
      [
        "h",
        "o"
      ],
      [
        "e",
        "s"
      ],
      [
        "not",
        "_"
      ],
      [
        "g",
        "o"
      ],
      [
        "a",
        "d"
      ],
      [
        "g",
        "h"
      ],
      [
        "l",
        "o"
      ],
      [
        "d",
        "ay"
      ],
      [
        "f",
        "or"
      ],
      [
        "o",
        "f"
      ],
      [
        "c",
        "k"
      ],
      [
        "a",
        "ll"
      ],
      [
        "l",
        "i"
      ],
      [
        "a",
        "m"
      ],
      [
        "r",
        "o"
      ],
      [
        "u",
        "t"
      ],
      [
        "w",
        "i"
      ],
      [
        "a",
        "l"
      ],
      [
        "e",
        "t"
      ],
      [
        "h",
        "e"
      ],
      [
        "u",
        "n"
      ],
      [
        "w",
        "h"
      ],
      [
        "t",
        "i"
      ],
      [
        "k",
        "e"
      ],
      [
        "th",
        "at"
      ],
      [
        "w",
        "e"
      ],
      [
        "r",
        "i"
      ],
      [
        "gh",
        "t"
      ],
      [
        "d",
        "o"
      ],
      [
        "v",
        "er"
      ],
      [
        "ou",
        "t"
      ],
      [
        "s",
        "e"
      ],
      [
        "l",
        "y"
      ],
      [
        "ha",
        "ve"
      ],
      [
        "i",
        "d"
      ],
      [
        "on",
        "e"
      ],
      [
        "no",
        "w"
      ],
      [
        "u",
        "p"
      ],
      [
        "u",
        "st"
      ],
      [
        "c",
        "o"
      ],
      [
        "c",
        "e"
      ],
      [
        "l",
        "d"
      ],
      [
        "b",
        "ut"
      ],
      [
        "m",
        "o"
      ],
      [
        "t",
        "er"
      ],
      [
        "w",
        "or"
      ],
      [
        "j",
        "ust"
      ],
      [
        "n",
        "i"
      ],
      [
        "er",
        "e"
      ],
      [
        "c",
        "an"
      ],
      [
        "wi",
        "th"
      ],
      [
        "n",
        "e"
      ],
      [
        "oo",
        "d"
      ],
      [
        "g",
        "et"
      ],
      [
        "w",
        "as"
      ],
      [
        "l",
        "a"
      ],
      [
        "r",
        "a"
      ],
      [
        "a",
        "re"
      ],
      [
        "i",
        "r"
      ],
      [
        "m",
        "a"
      ],
      [
        "q",
        "u"
      ],
      [
        "a",
        "b"
      ],
      [
        "u",
        "r"
      ],
      [
        "so",
        "me"
      ],
      [
        "p",
        "e"
      ],
      [
        "g",
        "ood"
      ],
      [
        "t",
        "w"
      ],
      [
        "wor",
        "k"
      ],
      [
        "all",
        "y"
      ],
      [
        "i",
        "m"
      ],
      [
        "th",
        "is"
      ],
      [
        "r",
        "y"
      ],
      [
        "u",
        "s"
      ],
      [
        "p",
        "p"
      ],
      [
        "o",
        "t"
      ],
      [
        "i",
        "c"
      ],
      [
        "ou",
        "ld"
      ],
      [
        "i",
        "ll"
      ],
      [
        "s",
        "h"
      ],
      [
        "b",
        "a"
      ],
      [
        "en",
        "d"
      ],
      [
        "ni",
        "ght"
      ],
      [
        "d",
        "e"
      ],
      [
        "s",
        "u"
      ],
      [
        "li",
        "ke"
      ],
      [
        "lo",
        "ve"
      ],
      [
        "m",
        "or"
      ],
      [
        "go",
        "t"
      ],
      [
        "an",
        "t"
      ],
      [
        "n",
        "t"
      ],
      [
        "n",
        "a"
      ],
      [
        "ti",
        "me"
      ],
      [
        "d",
        "on"
      ],
      [
        "at",
        "e"
      ],
      [
        "th",
        "er"
      ],
      [
        "to",
        "o"
      ],
      [
        "ho",
        "w"
      ],
      [
        "y",
        "e"
      ],
      [
        "qu",
        "ot"
      ],
      [
        "in",
        "k"
      ],
      [
        "th",
        "ing"
      ],
      [
        "th",
        "an"
      ],
      [
        "a",
        "g"
      ],
      [
        "to",
        "day"
      ],
      [
        "you",
        "r"
      ],
      [
        "s",
        "s"
      ],
      [
        "s",
        "ee"
      ],
      [
        "is",
        "s"
      ],
      [
        "oo",
        "k"
      ],
      [
        "i",
        "f"
      ],
      [
        "b",
        "o"
      ],
      [
        "go",
        "ing"
      ],
      [
        "f",
        "ee"
      ],
      [
        "p",
        "o"
      ],
      [
        "t",
        "e"
      ],
      [
        "t",
        "a"
      ],
      [
        "ha",
        "ha"
      ],
      [
        "is",
        "h"
      ],
      [
        "w",
        "ay"
      ],
      [
        "ver",
        "y"
      ],
      [
        "w",
        "ee"
      ],
      [
        "wh",
        "at"
      ],
      [
        "ba",
        "ck"
      ],
      [
        "ee",
        "p"
      ],
      [
        "ro",
        "m"
      ],
      [
        "an",
        "y"
      ],
      [
        "lo",
        "l"
      ],
      [
        "f",
        "in"
      ],
      [
        "t",
        "ing"
      ],
      [
        "w",
        "a"
      ],
      [
        "m",
        "iss"
      ],
      [
        "i",
        "on"
      ],
      [
        "w",
        "ant"
      ],
      [
        "f",
        "o"
      ],
      [
        "am",
        "p"
      ],
      [
        "f",
        "a"
      ],
      [
        "f",
        "rom"
      ],
      [
        "f",
        "e"
      ],
      [
        "o",
        "w"
      ],
      [
        "k",
        "now"
      ],
      [
        "m",
        "m"
      ],
      [
        "on",
        "g"
      ],
      [
        "ou",
        "r"
      ],
      [
        "c",
        "a"
      ],
      [
        "at",
        "ch"
      ],
      [
        "e",
        "x"
      ],
      [
        "wi",
        "ll"
      ],
      [
        "d",
        "id"
      ],
      [
        "ne",
        "w"
      ],
      [
        "than",
        "k"
      ],
      [
        "n",
        "ing"
      ],
      [
        "ar",
        "t"
      ],
      [
        "th",
        "ink"
      ],
      [
        "p",
        "le"
      ],
      [
        "fee",
        "l"
      ],
      [
        "ab",
        "out"
      ],
      [
        "s",
        "i"
      ],
      [
        "a",
        "h"
      ],
      [
        "ha",
        "d"
      ],
      [
        "re",
        "ally"
      ],
      [
        "of",
        "f"
      ],
      [
        "s",
        "a"
      ],
      [
        "it",
        "s"
      ],
      [
        "n",
        "d"
      ],
      [
        "o",
        "h"
      ],
      [
        "ee",
        "d"
      ],
      [
        "er",
        "s"
      ],
      [
        "p",
        "l"
      ],
      [
        "wee",
        "k"
      ],
      [
        "g",
        "u"
      ],
      [
        "ro",
        "w"
      ],
      [
        "m",
        "u"
      ],
      [
        "a",
        "in"
      ],
      [
        "f",
        "ri"
      ],
      [
        "re",
        "ad"
      ],
      [
        "i",
        "e"
      ],
      [
        "mo",
        "re"
      ],
      [
        "g",
        "re"
      ],
      [
        "w",
        "atch"
      ],
      [
        "ho",
        "me"
      ],
      [
        "co",
        "m"
      ],
      [
        "th",
        "ere"
      ],
      [
        "en",
        "t"
      ],
      [
        "we",
        "ll"
      ],
      [
        "i",
        "l"
      ],
      [
        "ou",
        "gh"
      ],
      [
        "the",
        "y"
      ],
      [
        "re",
        "d"
      ],
      [
        "n",
        "eed"
      ],
      [
        "st",
        "ill"
      ],
      [
        "tw",
        "it"
      ],
      [
        "s",
        "p"
      ],
      [
        "c",
        "t"
      ],
      [
        "oo",
        "l"
      ],
      [
        "c",
        "on"
      ],
      [
        "f",
        "u"
      ],
      [
        "g",
        "e"
      ],
      [
        "it",
        "e"
      ],
      [
        "l",
        "ook"
      ],
      [
        "s",
        "l"
      ],
      [
        "wh",
        "en"
      ],
      [
        "f",
        "un"
      ],
      [
        "ho",
        "pe"
      ],
      [
        "v",
        "ing"
      ],
      [
        "twit",
        "ter"
      ],
      [
        "u",
        "m"
      ],
      [
        "ou",
        "nd"
      ],
      [
        "ee",
        "n"
      ],
      [
        "la",
        "st"
      ],
      [
        "ha",
        "pp"
      ],
      [
        "m",
        "i"
      ],
      [
        "t",
        "s"
      ],
      [
        "j",
        "o"
      ],
      [
        "h",
        "ere"
      ],
      [
        "co",
        "me"
      ],
      [
        "mu",
        "ch"
      ],
      [
        "k",
        "ing"
      ],
      [
        "in",
        "e"
      ],
      [
        "p",
        "h"
      ],
      [
        "ar",
        "d"
      ],
      [
        "sl",
        "eep"
      ],
      [
        "es",
        "s"
      ],
      [
        "mor",
        "row"
      ],
      [
        "ha",
        "s"
      ],
      [
        "p",
        "re"
      ],
      [
        "thank",
        "s"
      ],
      [
        "e",
        "very"
      ],
      [
        "the",
        "n"
      ],
      [
        "h",
        "er"
      ],
      [
        "e",
        "ve"
      ],
      [
        "h",
        "h"
      ],
      [
        "w",
        "n"
      ],
      [
        "id",
        "e"
      ],
      [
        "to",
        "morrow"
      ],
      [
        "p",
        "ro"
      ],
      [
        "w",
        "ish"
      ],
      [
        "l",
        "u"
      ],
      [
        "mor",
        "ning"
      ],
      [
        "a",
        "a"
      ],
      [
        "oo",
        "oo"
      ],
      [
        "b",
        "een"
      ],
      [
        "gre",
        "at"
      ],
      [
        "s",
        "ad"
      ],
      [
        "wa",
        "it"
      ],
      [
        "ou",
        "s"
      ],
      [
        "ch",
        "e"
      ],
      [
        "b",
        "y"
      ],
      [
        "ri",
        "ght"
      ],
      [
        "in",
        "d"
      ],
      [
        "ag",
        "ain"
      ],
      [
        "s",
        "un"
      ],
      [
        "u",
        "se"
      ],
      [
        "s",
        "he"
      ],
      [
        "fri",
        "end"
      ],
      [
        "s",
        "to"
      ],
      [
        "w",
        "ould"
      ],
      [
        "ll",
        "ow"
      ],
      [
        "a",
        "f"
      ],
      [
        "b",
        "ad"
      ],
      [
        "t",
        "y"
      ],
      [
        "s",
        "or"
      ],
      [
        "w",
        "on"
      ],
      [
        "g",
        "r"
      ],
      [
        "b",
        "u"
      ],
      [
        "i",
        "g"
      ],
      [
        "c",
        "ould"
      ],
      [
        "m",
        "an"
      ],
      [
        "fo",
        "llow"
      ],
      [
        "read",
        "y"
      ],
      [
        "as",
        "s"
      ],
      [
        "b",
        "le"
      ],
      [
        "tw",
        "ee"
      ],
      [
        "at",
        "ion"
      ],
      [
        "wh",
        "y"
      ],
      [
        "f",
        "f"
      ],
      [
        "on",
        "ly"
      ],
      [
        "o",
        "ver"
      ],
      [
        "ra",
        "in"
      ],
      [
        "st",
        "u"
      ],
      [
        "d",
        "y"
      ],
      [
        "o",
        "ther"
      ],
      [
        "a",
        "w"
      ],
      [
        "w",
        "ho"
      ],
      [
        "m",
        "on"
      ],
      [
        "be",
        "t"
      ],
      [
        "l",
        "t"
      ],
      [
        "p",
        "a"
      ],
      [
        "o",
        "k"
      ],
      [
        "d",
        "er"
      ],
      [
        "s",
        "how"
      ],
      [
        "s",
        "ay"
      ],
      [
        "to",
        "night"
      ],
      [
        "r",
        "u"
      ],
      [
        "th",
        "ough"
      ],
      [
        "happ",
        "y"
      ],
      [
        "re",
        "a"
      ],
      [
        "sh",
        "ould"
      ],
      [
        "ma",
        "ke"
      ],
      [
        "g",
        "on"
      ],
      [
        "x",
        "t"
      ],
      [
        "sor",
        "ry"
      ],
      [
        "the",
        "m"
      ],
      [
        "b",
        "ed"
      ],
      [
        "do",
        "wn"
      ],
      [
        "d",
        "i"
      ],
      [
        "p",
        "er"
      ],
      [
        "he",
        "ad"
      ],
      [
        "s",
        "ch"
      ],
      [
        "y",
        "s"
      ],
      [
        "le",
        "a"
      ],
      [
        "get",
        "ting"
      ],
      [
        "t",
        "ry"
      ],
      [
        "p",
        "ic"
      ],
      [
        "i",
        "ve"
      ],
      [
        "st",
        "er"
      ],
      [
        "l",
        "f"
      ],
      [
        "af",
        "ter"
      ],
      [
        "pl",
        "ay"
      ],
      [
        "ni",
        "ce"
      ],
      [
        "day",
        "s"
      ],
      [
        "gon",
        "na"
      ],
      [
        "ha",
        "r"
      ],
      [
        "n",
        "y"
      ],
      [
        "a",
        "c"
      ],
      [
        "as",
        "e"
      ],
      [
        "do",
        "es"
      ],
      [
        "bet",
        "ter"
      ],
      [
        "ye",
        "ah"
      ],
      [
        "y",
        "es"
      ],
      [
        "s",
        "c"
      ],
      [
        "b",
        "er"
      ],
      [
        "t",
        "le"
      ],
      [
        "g",
        "l"
      ],
      [
        "me",
        "nt"
      ],
      [
        "watch",
        "ing"
      ],
      [
        "h",
        "i"
      ],
      [
        "b",
        "r"
      ],
      [
        "g",
        "a"
      ],
      [
        "x",
        "x"
      ],
      [
        "m",
        "ay"
      ],
      [
        "i",
        "le"
      ],
      [
        "ph",
        "one"
      ],
      [
        "an",
        "g"
      ],
      [
        "l",
        "ong"
      ],
      [
        "sch",
        "ool"
      ],
      [
        "h",
        "our"
      ],
      [
        "i",
        "es"
      ],
      [
        "pe",
        "o"
      ],
      [
        "peo",
        "ple"
      ],
      [
        "ca",
        "use"
      ],
      [
        "did",
        "n"
      ],
      [
        "i",
        "ce"
      ],
      [
        "i",
        "ck"
      ],
      [
        "t",
        "u"
      ],
      [
        "b",
        "ab"
      ],
      [
        "o",
        "m"
      ],
      [
        "h",
        "im"
      ],
      [
        "m",
        "ad"
      ],
      [
        "wh",
        "ere"
      ],
      [
        "le",
        "t"
      ],
      [
        "l",
        "it"
      ],
      [
        "he",
        "y"
      ],
      [
        "v",
        "ie"
      ],
      [
        "p",
        "s"
      ],
      [
        "f",
        "i"
      ],
      [
        "g",
        "g"
      ],
      [
        "re",
        "e"
      ],
      [
        "p",
        "art"
      ],
      [
        "a",
        "pp"
      ],
      [
        "h",
        "ate"
      ],
      [
        "an",
        "s"
      ],
      [
        "a",
        "we"
      ],
      [
        "week",
        "end"
      ],
      [
        "eve",
        "n"
      ],
      [
        "e",
        "ar"
      ],
      [
        "an",
        "na"
      ],
      [
        "m",
        "in"
      ],
      [
        "m",
        "s"
      ],
      [
        "ti",
        "on"
      ],
      [
        "th",
        "o"
      ],
      [
        "ck",
        "s"
      ],
      [
        "c",
        "i"
      ],
      [
        "ou",
        "ght"
      ],
      [
        "ne",
        "xt"
      ],
      [
        "g",
        "ir"
      ],
      [
        "b",
        "ro"
      ],
      [
        "awe",
        "some"
      ],
      [
        "ne",
        "ver"
      ],
      [
        "c",
        "ra"
      ],
      [
        "u",
        "gh"
      ],
      [
        "u",
        "l"
      ],
      [
        "so",
        "on"
      ],
      [
        "k",
        "es"
      ],
      [
        "f",
        "ir"
      ],
      [
        "be",
        "st"
      ],
      [
        "don",
        "t"
      ],
      [
        "st",
        "art"
      ],
      [
        "li",
        "st"
      ],
      [
        "y",
        "y"
      ],
      [
        "t",
        "al"
      ],
      [
        "w",
        "ere"
      ],
      [
        "c",
        "it"
      ],
      [
        "h",
        "is"
      ],
      [
        "am",
        "a"
      ],
      [
        "can",
        "t"
      ],
      [
        "fo",
        "re"
      ],
      [
        "s",
        "up"
      ],
      [
        "ta",
        "ke"
      ],
      [
        "p",
        "r"
      ],
      [
        "way",
        "s"
      ],
      [
        "gir",
        "l"
      ],
      [
        "s",
        "ho"
      ],
      [
        "c",
        "ar"
      ],
      [
        "ye",
        "ar"
      ],
      [
        "h",
        "u"
      ],
      [
        "at",
        "er"
      ],
      [
        "lit",
        "tle"
      ],
      [
        "si",
        "ck"
      ],
      [
        "fir",
        "st"
      ],
      [
        "work",
        "ing"
      ],
      [
        "ag",
        "e"
      ],
      [
        "li",
        "fe"
      ],
      [
        "p",
        "ut"
      ],
      [
        "mo",
        "st"
      ],
      [
        "in",
        "ter"
      ],
      [
        "ti",
        "red"
      ],
      [
        "b",
        "it"
      ],
      [
        "s",
        "er"
      ],
      [
        "w",
        "anna"
      ],
      [
        "c",
        "all"
      ],
      [
        "be",
        "a"
      ],
      [
        "f",
        "t"
      ],
      [
        "b",
        "ook"
      ],
      [
        "su",
        "re"
      ],
      [
        "w",
        "r"
      ],
      [
        "c",
        "ou"
      ],
      [
        "twee",
        "t"
      ],
      [
        "d",
        "u"
      ],
      [
        "ha",
        "ving"
      ],
      [
        "do",
        "ing"
      ],
      [
        "d",
        "am"
      ],
      [
        "be",
        "ing"
      ],
      [
        "ou",
        "se"
      ],
      [
        "m",
        "ar"
      ],
      [
        "d",
        "r"
      ],
      [
        "mm",
        "er"
      ],
      [
        "oo",
        "o"
      ],
      [
        "e",
        "at"
      ],
      [
        "l",
        "ate"
      ],
      [
        "r",
        "r"
      ],
      [
        "se",
        "lf"
      ],
      [
        "he",
        "l"
      ],
      [
        "st",
        "e"
      ],
      [
        "d",
        "one"
      ],
      [
        "feel",
        "ing"
      ],
      [
        "z",
        "ing"
      ],
      [
        "h",
        "ur"
      ],
      [
        "y",
        "ay"
      ],
      [
        "jo",
        "y"
      ],
      [
        "fin",
        "d"
      ],
      [
        "ab",
        "le"
      ],
      [
        "e",
        "ver"
      ],
      [
        "ple",
        "ase"
      ],
      [
        "k",
        "eep"
      ],
      [
        "c",
        "l"
      ],
      [
        "d",
        "a"
      ],
      [
        "c",
        "ut"
      ],
      [
        "t",
        "ri"
      ],
      [
        "h",
        "ouse"
      ],
      [
        "c",
        "le"
      ],
      [
        "friend",
        "s"
      ],
      [
        "c",
        "ool"
      ],
      [
        "w",
        "o"
      ],
      [
        "al",
        "ways"
      ],
      [
        "z",
        "z"
      ],
      [
        "n",
        "er"
      ],
      [
        "a",
        "ct"
      ],
      [
        "al",
        "ready"
      ],
      [
        "s",
        "ide"
      ],
      [
        "or",
        "t"
      ],
      [
        "li",
        "ve"
      ],
      [
        "an",
        "other"
      ],
      [
        "some",
        "thing"
      ],
      [
        "e",
        "st"
      ],
      [
        "y",
        "a"
      ],
      [
        "every",
        "one"
      ],
      [
        "mad",
        "e"
      ],
      [
        "b",
        "rea"
      ],
      [
        "ti",
        "l"
      ],
      [
        "re",
        "am"
      ],
      [
        "gu",
        "ys"
      ],
      [
        "lu",
        "ck"
      ],
      [
        "s",
        "it"
      ],
      [
        "t",
        "ra"
      ],
      [
        "d",
        "is"
      ],
      [
        "s",
        "ong"
      ],
      [
        "pre",
        "t"
      ],
      [
        "en",
        "joy"
      ],
      [
        "aw",
        "w"
      ],
      [
        "c",
        "u"
      ],
      [
        "fu",
        "ll"
      ],
      [
        "be",
        "cause"
      ],
      [
        "hel",
        "p"
      ],
      [
        "s",
        "ha"
      ],
      [
        "o",
        "ld"
      ],
      [
        "w",
        "ent"
      ],
      [
        "look",
        "ing"
      ],
      [
        "y",
        "et"
      ],
      [
        "hour",
        "s"
      ],
      [
        "b",
        "ig"
      ],
      [
        "s",
        "ound"
      ],
      [
        "lo",
        "t"
      ],
      [
        "b",
        "ir"
      ],
      [
        "be",
        "fore"
      ],
      [
        "p",
        "ar"
      ],
      [
        "dam",
        "n"
      ],
      [
        "mo",
        "vie"
      ],
      [
        "j",
        "e"
      ],
      [
        "a",
        "way"
      ],
      [
        "w",
        "in"
      ],
      [
        "ho",
        "t"
      ],
      [
        "te",
        "ll"
      ],
      [
        "in",
        "t"
      ],
      [
        "su",
        "mmer"
      ],
      [
        "ur",
        "n"
      ],
      [
        "he",
        "ll"
      ],
      [
        "pret",
        "ty"
      ],
      [
        "u",
        "ally"
      ],
      [
        "un",
        "ch"
      ],
      [
        "om",
        "g"
      ],
      [
        "th",
        "ought"
      ],
      [
        "p",
        "la"
      ],
      [
        "d",
        "d"
      ],
      [
        "fu",
        "l"
      ],
      [
        "may",
        "be"
      ],
      [
        "an",
        "ce"
      ],
      [
        "b",
        "l"
      ],
      [
        "b",
        "lo"
      ],
      [
        "b",
        "us"
      ],
      [
        "ga",
        "me"
      ],
      [
        "p",
        "t"
      ],
      [
        "st",
        "ar"
      ],
      [
        "fin",
        "ish"
      ],
      [
        "to",
        "r"
      ],
      [
        "try",
        "ing"
      ],
      [
        "ama",
        "zing"
      ],
      [
        "li",
        "ght"
      ],
      [
        "ex",
        "cit"
      ],
      [
        "i",
        "i"
      ],
      [
        "gu",
        "ess"
      ],
      [
        "list",
        "en"
      ],
      [
        "i",
        "ous"
      ],
      [
        "m",
        "us"
      ],
      [
        "e",
        "l"
      ],
      [
        "wh",
        "ile"
      ],
      [
        "i",
        "ly"
      ],
      [
        "we",
        "a"
      ],
      [
        "ee",
        "ee"
      ],
      [
        "thing",
        "s"
      ],
      [
        "fin",
        "ally"
      ],
      [
        "k",
        "ind"
      ],
      [
        "ear",
        "ly"
      ],
      [
        "che",
        "ck"
      ],
      [
        "time",
        "s"
      ],
      [
        "har",
        "d"
      ],
      [
        "com",
        "ing"
      ],
      [
        "c",
        "lo"
      ],
      [
        "in",
        "to"
      ],
      [
        "v",
        "is"
      ],
      [
        "fu",
        "ck"
      ],
      [
        "mo",
        "m"
      ],
      [
        "f",
        "am"
      ],
      [
        "d",
        "es"
      ],
      [
        "le",
        "ft"
      ],
      [
        "to",
        "n"
      ],
      [
        "some",
        "one"
      ],
      [
        "b",
        "s"
      ],
      [
        "he",
        "ar"
      ],
      [
        "r",
        "oo"
      ],
      [
        "w",
        "ow"
      ],
      [
        "c",
        "er"
      ],
      [
        "le",
        "ss"
      ],
      [
        "as",
        "h"
      ],
      [
        "g",
        "ive"
      ],
      [
        "g",
        "s"
      ],
      [
        "r",
        "un"
      ],
      [
        "fri",
        "day"
      ],
      [
        "le",
        "s"
      ],
      [
        "k",
        "id"
      ],
      [
        "d",
        "s"
      ],
      [
        "brea",
        "k"
      ],
      [
        "p",
        "en"
      ],
      [
        "stu",
        "ff"
      ],
      [
        "s",
        "in"
      ],
      [
        "sa",
        "me"
      ],
      [
        "u",
        "re"
      ],
      [
        "miss",
        "ed"
      ],
      [
        "j",
        "a"
      ],
      [
        "fa",
        "ce"
      ],
      [
        "lo",
        "st"
      ],
      [
        "bab",
        "y"
      ],
      [
        "tal",
        "k"
      ],
      [
        "no",
        "thing"
      ],
      [
        "at",
        "ed"
      ],
      [
        "lo",
        "ad"
      ],
      [
        "w",
        "ard"
      ],
      [
        "part",
        "y"
      ],
      [
        "s",
        "at"
      ],
      [
        "gl",
        "ad"
      ],
      [
        "bo",
        "red"
      ],
      [
        "s",
        "wee"
      ],
      [
        "s",
        "et"
      ],
      [
        "b",
        "oo"
      ],
      [
        "po",
        "st"
      ],
      [
        "t",
        "r"
      ],
      [
        "s",
        "ing"
      ],
      [
        "wea",
        "ther"
      ],
      [
        "l",
        "ater"
      ],
      [
        "al",
        "so"
      ],
      [
        "look",
        "s"
      ],
      [
        "re",
        "al"
      ],
      [
        "happ",
        "en"
      ],
      [
        "tw",
        "o"
      ],
      [
        "go",
        "d"
      ],
      [
        "bir",
        "th"
      ],
      [
        "v",
        "o"
      ],
      [
        "mus",
        "ic"
      ],
      [
        "ha",
        "ir"
      ],
      [
        "wor",
        "ld"
      ],
      [
        "does",
        "n"
      ],
      [
        "m",
        "any"
      ],
      [
        "s",
        "k"
      ],
      [
        "su",
        "cks"
      ],
      [
        "i",
        "a"
      ],
      [
        "sa",
        "w"
      ],
      [
        "u",
        "u"
      ],
      [
        "mi",
        "ght"
      ],
      [
        "is",
        "e"
      ],
      [
        "s",
        "pe"
      ],
      [
        "d",
        "ri"
      ],
      [
        "act",
        "ually"
      ],
      [
        "st",
        "ay"
      ],
      [
        "won",
        "der"
      ],
      [
        "wait",
        "ing"
      ],
      [
        "f",
        "ar"
      ],
      [
        "excit",
        "ed"
      ],
      [
        "h",
        "un"
      ],
      [
        "ex",
        "am"
      ],
      [
        "tho",
        "se"
      ],
      [
        "it",
        "y"
      ],
      [
        "an",
        "ge"
      ],
      [
        "d",
        "ing"
      ],
      [
        "d",
        "in"
      ],
      [
        "birth",
        "day"
      ],
      [
        "t",
        "v"
      ],
      [
        "ma",
        "kes"
      ],
      [
        "as",
        "on"
      ],
      [
        "ye",
        "ster"
      ],
      [
        "me",
        "et"
      ],
      [
        "f",
        "ree"
      ],
      [
        "w",
        "er"
      ],
      [
        "z",
        "y"
      ],
      [
        "sa",
        "id"
      ],
      [
        "l",
        "ine"
      ],
      [
        "yester",
        "day"
      ],
      [
        "f",
        "r"
      ],
      [
        "w",
        "al"
      ],
      [
        "a",
        "ch"
      ],
      [
        "v",
        "ide"
      ],
      [
        "c",
        "or"
      ],
      [
        "sin",
        "ce"
      ],
      [
        "b",
        "la"
      ],
      [
        "l",
        "and"
      ],
      [
        "un",
        "til"
      ],
      [
        "that",
        "s"
      ],
      [
        "bea",
        "ut"
      ],
      [
        "k",
        "ed"
      ],
      [
        "fe",
        "w"
      ],
      [
        "got",
        "ta"
      ],
      [
        "sh",
        "it"
      ],
      [
        "n",
        "et"
      ],
      [
        "wa",
        "ke"
      ],
      [
        "su",
        "ch"
      ],
      [
        "co",
        "ld"
      ],
      [
        "e",
        "m"
      ],
      [
        "at",
        "s"
      ],
      [
        "up",
        "d"
      ],
      [
        "b",
        "b"
      ],
      [
        "bo",
        "y"
      ],
      [
        "haha",
        "ha"
      ],
      [
        "vide",
        "o"
      ],
      [
        "ar",
        "ound"
      ],
      [
        "d",
        "ad"
      ],
      [
        "my",
        "self"
      ],
      [
        "cl",
        "ass"
      ],
      [
        "m",
        "ust"
      ],
      [
        "p",
        "ort"
      ],
      [
        "t",
        "en"
      ],
      [
        "c",
        "ha"
      ],
      [
        "pp",
        "ing"
      ],
      [
        "bo",
        "dy"
      ],
      [
        "cou",
        "nt"
      ],
      [
        "ch",
        "o"
      ],
      [
        "g",
        "t"
      ],
      [
        "f",
        "ound"
      ],
      [
        "b",
        "or"
      ],
      [
        "m",
        "ber"
      ],
      [
        "i",
        "o"
      ],
      [
        "t",
        "ru"
      ],
      [
        "at",
        "es"
      ],
      [
        "lea",
        "ve"
      ],
      [
        "at",
        "ing"
      ],
      [
        "re",
        "me"
      ],
      [
        "lea",
        "st"
      ],
      [
        "g",
        "er"
      ],
      [
        "me",
        "an"
      ],
      [
        "mon",
        "day"
      ],
      [
        "p",
        "ho"
      ],
      [
        "un",
        "der"
      ],
      [
        "s",
        "m"
      ],
      [
        "if",
        "ul"
      ],
      [
        "pl",
        "an"
      ],
      [
        "the",
        "ir"
      ],
      [
        "po",
        "or"
      ],
      [
        "c",
        "r"
      ],
      [
        "m",
        "ind"
      ],
      [
        "roo",
        "m"
      ],
      [
        "have",
        "n"
      ],
      [
        "jo",
        "b"
      ],
      [
        "w",
        "ed"
      ],
      [
        "sound",
        "s"
      ],
      [
        "sun",
        "day"
      ],
      [
        "c",
        "tion"
      ],
      [
        "f",
        "er"
      ],
      [
        "ti",
        "ll"
      ],
      [
        "t",
        "t"
      ],
      [
        "beaut",
        "iful"
      ],
      [
        "ma",
        "king"
      ],
      [
        "ar",
        "y"
      ],
      [
        "t",
        "urn"
      ],
      [
        "he",
        "he"
      ],
      [
        "to",
        "p"
      ],
      [
        "sto",
        "p"
      ],
      [
        "g",
        "one"
      ],
      [
        "p",
        "ain"
      ],
      [
        "be",
        "li"
      ],
      [
        "bu",
        "y"
      ],
      [
        "f",
        "ood"
      ],
      [
        "fa",
        "st"
      ],
      [
        "a",
        "ce"
      ],
      [
        "fa",
        "v"
      ],
      [
        "tu",
        "re"
      ],
      [
        "l",
        "unch"
      ],
      [
        "re",
        "ss"
      ],
      [
        "any",
        "thing"
      ],
      [
        "g",
        "y"
      ],
      [
        "ok",
        "ay"
      ],
      [
        "dr",
        "ink"
      ],
      [
        "re",
        "st"
      ],
      [
        "aa",
        "aa"
      ],
      [
        "miss",
        "ing"
      ],
      [
        "me",
        "d"
      ],
      [
        "me",
        "n"
      ],
      [
        "p",
        "ers"
      ],
      [
        "p",
        "i"
      ],
      [
        "one",
        "y"
      ],
      [
        "mon",
        "th"
      ],
      [
        "i",
        "ch"
      ],
      [
        "gr",
        "ad"
      ],
      [
        "a",
        "ir"
      ],
      [
        "r",
        "ough"
      ],
      [
        "lo",
        "w"
      ],
      [
        "k",
        "en"
      ],
      [
        "ad",
        "d"
      ],
      [
        "ck",
        "ed"
      ],
      [
        "fam",
        "ily"
      ],
      [
        "wo",
        "ke"
      ],
      [
        "al",
        "most"
      ],
      [
        "is",
        "n"
      ],
      [
        "ck",
        "et"
      ],
      [
        "an",
        "k"
      ],
      [
        "cut",
        "e"
      ],
      [
        "ma",
        "il"
      ],
      [
        "want",
        "ed"
      ],
      [
        "x",
        "o"
      ],
      [
        "full",
        "y"
      ],
      [
        "us",
        "ed"
      ],
      [
        "pho",
        "to"
      ],
      [
        "s",
        "oooo"
      ],
      [
        "j",
        "u"
      ],
      [
        "i",
        "phone"
      ],
      [
        "b",
        "all"
      ],
      [
        "din",
        "ner"
      ],
      [
        "listen",
        "ing"
      ],
      [
        "pic",
        "ture"
      ],
      [
        "fun",
        "ny"
      ],
      [
        "pla",
        "ce"
      ],
      [
        "sup",
        "er"
      ],
      [
        "c",
        "ry"
      ],
      [
        "stu",
        "dy"
      ],
      [
        "a",
        "k"
      ],
      [
        "d",
        "ream"
      ],
      [
        "p",
        "u"
      ],
      [
        "b",
        "um"
      ],
      [
        "every",
        "thing"
      ],
      [
        "beli",
        "eve"
      ],
      [
        "en",
        "ce"
      ],
      [
        "swee",
        "t"
      ],
      [
        "s",
        "ur"
      ],
      [
        "finish",
        "ed"
      ],
      [
        "le",
        "y"
      ],
      [
        "we",
        "l"
      ],
      [
        "me",
        "ss"
      ],
      [
        "play",
        "ing"
      ],
      [
        "any",
        "one"
      ],
      [
        "wh",
        "ich"
      ],
      [
        "v",
        "a"
      ],
      [
        "na",
        "me"
      ],
      [
        "c",
        "of"
      ],
      [
        "to",
        "t"
      ],
      [
        "k",
        "ill"
      ],
      [
        "think",
        "ing"
      ],
      [
        "for",
        "ward"
      ],
      [
        "re",
        "p"
      ],
      [
        "are",
        "nt"
      ],
      [
        "with",
        "out"
      ],
      [
        "st",
        "up"
      ],
      [
        "m",
        "ine"
      ],
      [
        "g",
        "n"
      ],
      [
        "al",
        "s"
      ],
      [
        "h",
        "and"
      ],
      [
        "z",
        "e"
      ],
      [
        "stup",
        "id"
      ],
      [
        "t",
        "in"
      ],
      [
        "te",
        "st"
      ],
      [
        "cof",
        "fee"
      ],
      [
        "w",
        "ar"
      ],
      [
        "oo",
        "t"
      ],
      [
        "f",
        "re"
      ],
      [
        "s",
        "end"
      ],
      [
        "t",
        "ed"
      ],
      [
        "cle",
        "an"
      ],
      [
        "a",
        "p"
      ],
      [
        "b",
        "ur"
      ],
      [
        "a",
        "go"
      ],
      [
        "p",
        "ing"
      ],
      [
        "th",
        "rough"
      ],
      [
        "a",
        "che"
      ],
      [
        "out",
        "side"
      ],
      [
        "not_",
        "i"
      ],
      [
        "b",
        "ar"
      ],
      [
        "tot",
        "ally"
      ],
      [
        "the",
        "se"
      ],
      [
        "h",
        "ang"
      ],
      [
        "i",
        "p"
      ],
      [
        "on",
        "es"
      ],
      [
        "en",
        "ough"
      ],
      [
        "a",
        "st"
      ],
      [
        "b",
        "i"
      ],
      [
        "s",
        "y"
      ],
      [
        "a",
        "u"
      ],
      [
        "n",
        "ess"
      ],
      [
        "pre",
        "ss"
      ],
      [
        "hur",
        "ts"
      ],
      [
        "d",
        "an"
      ],
      [
        "g",
        "ra"
      ],
      [
        "any",
        "more"
      ],
      [
        "pro",
        "bab"
      ],
      [
        "did",
        "nt"
      ],
      [
        "sat",
        "ur"
      ],
      [
        "he",
        "art"
      ],
      [
        "l",
        "or"
      ],
      [
        "probab",
        "ly"
      ],
      [
        "week",
        "s"
      ],
      [
        "c",
        "our"
      ],
      [
        "hh",
        "hh"
      ],
      [
        "c",
        "are"
      ],
      [
        "ve",
        "d"
      ],
      [
        "h",
        "mm"
      ],
      [
        "ca",
        "me"
      ],
      [
        "g",
        "i"
      ],
      [
        "pp",
        "ed"
      ],
      [
        "in",
        "s"
      ],
      [
        "b",
        "ye"
      ],
      [
        "rain",
        "ing"
      ],
      [
        "pers",
        "on"
      ],
      [
        "com",
        "p"
      ],
      [
        "no",
        "r"
      ],
      [
        "wr",
        "ong"
      ],
      [
        "twee",
        "ts"
      ],
      [
        "reme",
        "mber"
      ],
      [
        "s",
        "ooo"
      ],
      [
        "h",
        "or"
      ],
      [
        "min",
        "ut"
      ],
      [
        "eat",
        "ing"
      ],
      [
        "bus",
        "y"
      ],
      [
        "ll",
        "e"
      ],
      [
        "s",
        "ed"
      ],
      [
        "t",
        "re"
      ],
      [
        "st",
        "and"
      ],
      [
        "to",
        "m"
      ],
      [
        "vie",
        "w"
      ],
      [
        "v",
        "in"
      ],
      [
        "h",
        "it"
      ],
      [
        "c",
        "ur"
      ],
      [
        "bro",
        "ther"
      ],
      [
        "m",
        "oney"
      ],
      [
        "read",
        "ing"
      ],
      [
        "o",
        "pen"
      ],
      [
        "ha",
        "lf"
      ],
      [
        "ser",
        "ious"
      ],
      [
        "as",
        "k"
      ],
      [
        "n",
        "n"
      ],
      [
        "s",
        "on"
      ],
      [
        "p",
        "ass"
      ],
      [
        "mo",
        "ther"
      ],
      [
        "i",
        "ther"
      ],
      [
        "b",
        "and"
      ],
      [
        "want",
        "s"
      ],
      [
        "c",
        "re"
      ],
      [
        "ver",
        "s"
      ],
      [
        "t",
        "un"
      ],
      [
        "satur",
        "day"
      ],
      [
        "c",
        "y"
      ],
      [
        "bea",
        "ch"
      ],
      [
        "who",
        "le"
      ],
      [
        "love",
        "ly"
      ],
      [
        "wel",
        "come"
      ],
      [
        "s",
        "ent"
      ],
      [
        "ta",
        "king"
      ],
      [
        "s",
        "im"
      ],
      [
        "kid",
        "s"
      ],
      [
        "for",
        "got"
      ],
      [
        "c",
        "ook"
      ],
      [
        "see",
        "n"
      ],
      [
        "kind",
        "a"
      ],
      [
        "we",
        "ar"
      ],
      [
        "c",
        "es"
      ],
      [
        "follow",
        "ing"
      ],
      [
        "new",
        "s"
      ],
      [
        "gu",
        "y"
      ],
      [
        "ro",
        "ck"
      ],
      [
        "l",
        "s"
      ],
      [
        "de",
        "c"
      ],
      [
        "am",
        "er"
      ],
      [
        "cra",
        "zy"
      ],
      [
        "f",
        "all"
      ],
      [
        "p",
        "ri"
      ],
      [
        "com",
        "put"
      ],
      [
        "hi",
        "gh"
      ],
      [
        "hope",
        "fully"
      ],
      [
        "j",
        "un"
      ],
      [
        "p",
        "m"
      ],
      [
        "f",
        "ly"
      ],
      [
        "say",
        "s"
      ],
      [
        "c",
        "ong"
      ],
      [
        "too",
        "k"
      ],
      [
        "bo",
        "th"
      ],
      [
        "blo",
        "g"
      ],
      [
        "ow",
        "n"
      ],
      [
        "tru",
        "e"
      ],
      [
        "p",
        "y"
      ],
      [
        "follow",
        "ers"
      ],
      [
        "s",
        "oo"
      ],
      [
        "cu",
        "z"
      ],
      [
        "f",
        "an"
      ],
      [
        "not_",
        "to"
      ],
      [
        "p",
        "ick"
      ],
      [
        "year",
        "s"
      ],
      [
        "ll",
        "y"
      ],
      [
        "c",
        "ti"
      ],
      [
        "ide",
        "a"
      ],
      [
        "ch",
        "ill"
      ],
      [
        "to",
        "wn"
      ],
      [
        "el",
        "se"
      ],
      [
        "fe",
        "ct"
      ],
      [
        "w",
        "oo"
      ],
      [
        "r",
        "ing"
      ],
      [
        "k",
        "s"
      ],
      [
        "br",
        "ing"
      ],
      [
        "l",
        "ink"
      ],
      [
        "cong",
        "r"
      ],
      [
        "lo",
        "ts"
      ],
      [
        "aww",
        "w"
      ],
      [
        "j",
        "on"
      ],
      [
        "ee",
        "e"
      ],
      [
        "pro",
        "ble"
      ],
      [
        "v",
        "id"
      ],
      [
        "ch",
        "i"
      ],
      [
        "do",
        "g"
      ],
      [
        "was",
        "n"
      ],
      [
        "fa",
        "il"
      ],
      [
        "si",
        "gn"
      ],
      [
        "us",
        "h"
      ],
      [
        "l",
        "ay"
      ],
      [
        "cour",
        "se"
      ],
      [
        "pic",
        "s"
      ],
      [
        "girl",
        "s"
      ],
      [
        "e",
        "ither"
      ],
      [
        "it",
        "ing"
      ],
      [
        "sit",
        "ting"
      ],
      [
        "comput",
        "er"
      ],
      [
        "m",
        "at"
      ],
      [
        "on",
        "ce"
      ],
      [
        "sho",
        "pping"
      ],
      [
        "lea",
        "ving"
      ],
      [
        "ck",
        "ing"
      ],
      [
        "d",
        "ar"
      ],
      [
        "bla",
        "ck"
      ],
      [
        "hell",
        "o"
      ],
      [
        "ne",
        "y"
      ],
      [
        "con",
        "cer"
      ],
      [
        "hur",
        "t"
      ],
      [
        "n",
        "ite"
      ],
      [
        "l",
        "ing"
      ],
      [
        "bo",
        "x"
      ],
      [
        "tri",
        "p"
      ],
      [
        "not_",
        "one"
      ],
      [
        "feel",
        "s"
      ],
      [
        "inter",
        "net"
      ],
      [
        "b",
        "ri"
      ],
      [
        "t",
        "wi"
      ],
      [
        "r",
        "s"
      ],
      [
        "c",
        "li"
      ],
      [
        "c",
        "ess"
      ],
      [
        "ci",
        "al"
      ],
      [
        "ard",
        "s"
      ],
      [
        "ma",
        "g"
      ],
      [
        "le",
        "ar"
      ],
      [
        "see",
        "ms"
      ],
      [
        "al",
        "one"
      ],
      [
        "b",
        "tw"
      ],
      [
        "sp",
        "ace"
      ],
      [
        "could",
        "n"
      ],
      [
        "f",
        "l"
      ],
      [
        "ti",
        "cket"
      ],
      [
        "off",
        "ice"
      ],
      [
        "c",
        "har"
      ],
      [
        "c",
        "lu"
      ],
      [
        "es",
        "day"
      ],
      [
        "tal",
        "king"
      ],
      [
        "hun",
        "g"
      ],
      [
        "d",
        "if"
      ],
      [
        "an",
        "a"
      ],
      [
        "de",
        "fin"
      ],
      [
        "head",
        "ache"
      ],
      [
        "he",
        "ard"
      ],
      [
        "tri",
        "ed"
      ],
      [
        "watch",
        "ed"
      ],
      [
        "stu",
        "ck"
      ],
      [
        "l",
        "ma"
      ],
      [
        "good",
        "night"
      ],
      [
        "l",
        "in"
      ],
      [
        "need",
        "s"
      ],
      [
        "it",
        "ch"
      ],
      [
        "love",
        "d"
      ],
      [
        "ch",
        "ange"
      ],
      [
        "u",
        "ght"
      ],
      [
        "fav",
        "or"
      ],
      [
        "get",
        "s"
      ],
      [
        "ma",
        "c"
      ],
      [
        "not_",
        "good"
      ],
      [
        "n",
        "g"
      ],
      [
        "l",
        "ad"
      ],
      [
        "start",
        "ed"
      ],
      [
        "s",
        "w"
      ],
      [
        "ri",
        "ble"
      ],
      [
        "c",
        "al"
      ],
      [
        "la",
        "p"
      ],
      [
        "te",
        "xt"
      ],
      [
        "inter",
        "est"
      ],
      [
        "fi",
        "x"
      ],
      [
        "no",
        "on"
      ],
      [
        "d",
        "ro"
      ],
      [
        "p",
        "ay"
      ],
      [
        "see",
        "ing"
      ],
      [
        "wal",
        "k"
      ],
      [
        "c",
        "atch"
      ],
      [
        "won",
        "t"
      ],
      [
        "s",
        "ou"
      ],
      [
        "su",
        "ck"
      ],
      [
        "are",
        "d"
      ],
      [
        "dri",
        "ve"
      ],
      [
        "e",
        "as"
      ],
      [
        "mo",
        "ve"
      ],
      [
        "v",
        "ot"
      ],
      [
        "v",
        "i"
      ],
      [
        "ion",
        "s"
      ],
      [
        "k",
        "k"
      ],
      [
        "d",
        "ra"
      ],
      [
        "m",
        "p"
      ],
      [
        "ation",
        "s"
      ],
      [
        "se",
        "ason"
      ],
      [
        "b",
        "ra"
      ],
      [
        "d",
        "en"
      ],
      [
        "qu",
        "ite"
      ],
      [
        "sup",
        "po"
      ],
      [
        "fin",
        "e"
      ],
      [
        "ah",
        "hh"
      ],
      [
        "um",
        "my"
      ],
      [
        "rep",
        "ly"
      ],
      [
        "show",
        "er"
      ],
      [
        "on",
        "line"
      ],
      [
        "m",
        "it"
      ],
      [
        "de",
        "ad"
      ],
      [
        "not_",
        "be"
      ],
      [
        "en",
        "gl"
      ],
      [
        "st",
        "ra"
      ],
      [
        "s",
        "ite"
      ],
      [
        "go",
        "es"
      ],
      [
        "a",
        "wake"
      ],
      [
        "break",
        "fast"
      ],
      [
        "ro",
        "ss"
      ],
      [
        "e",
        "mail"
      ],
      [
        "l",
        "on"
      ],
      [
        "s",
        "mi"
      ],
      [
        "bor",
        "ing"
      ],
      [
        "m",
        "id"
      ],
      [
        "w",
        "ater"
      ],
      [
        "ce",
        "ll"
      ],
      [
        "wor",
        "d"
      ],
      [
        "y",
        "o"
      ],
      [
        "ate",
        "ly"
      ],
      [
        "ir",
        "d"
      ],
      [
        "face",
        "book"
      ],
      [
        "to",
        "ur"
      ],
      [
        "serious",
        "ly"
      ],
      [
        "p",
        "ed"
      ],
      [
        "f",
        "rea"
      ],
      [
        "us",
        "ing"
      ],
      [
        "to",
        "ld"
      ],
      [
        "lma",
        "o"
      ],
      [
        "e",
        "p"
      ],
      [
        "po",
        "d"
      ],
      [
        "d",
        "ou"
      ],
      [
        "sp",
        "end"
      ],
      [
        "co",
        "ver"
      ],
      [
        "cit",
        "y"
      ],
      [
        "m",
        "c"
      ],
      [
        "so",
        "l"
      ],
      [
        "luck",
        "y"
      ],
      [
        "ou",
        "d"
      ],
      [
        "k",
        "in"
      ],
      [
        "sun",
        "ny"
      ],
      [
        "st",
        "r"
      ],
      [
        "s",
        "en"
      ],
      [
        "minut",
        "es"
      ],
      [
        "ri",
        "ed"
      ],
      [
        "m",
        "r"
      ],
      [
        "bro",
        "ke"
      ],
      [
        "ag",
        "es"
      ],
      [
        "b",
        "ought"
      ],
      [
        "not_",
        "wait"
      ],
      [
        "c",
        "up"
      ],
      [
        "ke",
        "y"
      ],
      [
        "a",
        "th"
      ],
      [
        "ic",
        "i"
      ],
      [
        "qu",
        "est"
      ],
      [
        "jun",
        "e"
      ],
      [
        "star",
        "ting"
      ],
      [
        "call",
        "ed"
      ],
      [
        "qu",
        "i"
      ],
      [
        "c",
        "at"
      ],
      [
        "concer",
        "t"
      ],
      [
        "as",
        "l"
      ],
      [
        "ste",
        "ad"
      ],
      [
        "du",
        "de"
      ],
      [
        "g",
        "en"
      ],
      [
        "r",
        "is"
      ],
      [
        "si",
        "ster"
      ],
      [
        "cra",
        "p"
      ],
      [
        "li",
        "c"
      ],
      [
        "i",
        "ght"
      ],
      [
        "any",
        "way"
      ],
      [
        "upd",
        "ate"
      ],
      [
        "work",
        "s"
      ],
      [
        "hung",
        "ry"
      ],
      [
        "re",
        "ason"
      ],
      [
        "st",
        "y"
      ],
      [
        "sto",
        "re"
      ],
      [
        "co",
        "lle"
      ],
      [
        "for",
        "m"
      ],
      [
        "c",
        "ing"
      ],
      [
        "asl",
        "eep"
      ],
      [
        "after",
        "noon"
      ],
      [
        "ar",
        "ch"
      ],
      [
        "na",
        "p"
      ],
      [
        "ye",
        "a"
      ],
      [
        "je",
        "al"
      ],
      [
        "oooo",
        "oooo"
      ],
      [
        "g",
        "oo"
      ],
      [
        "w",
        "w"
      ],
      [
        "st",
        "a"
      ],
      [
        "se",
        "con"
      ],
      [
        "sleep",
        "ing"
      ],
      [
        "favor",
        "ite"
      ],
      [
        "le",
        "d"
      ],
      [
        "b",
        "out"
      ],
      [
        "gr",
        "and"
      ],
      [
        "per",
        "fect"
      ],
      [
        "in",
        "stead"
      ],
      [
        "x",
        "d"
      ],
      [
        "ve",
        "s"
      ],
      [
        "la",
        "ugh"
      ],
      [
        "sc",
        "re"
      ],
      [
        "com",
        "ple"
      ],
      [
        "p",
        "an"
      ],
      [
        "ge",
        "ther"
      ],
      [
        "n",
        "ed"
      ],
      [
        "si",
        "gh"
      ],
      [
        "tu",
        "be"
      ],
      [
        "la",
        "x"
      ],
      [
        "fa",
        "ir"
      ],
      [
        "jeal",
        "ous"
      ],
      [
        "ne",
        "ar"
      ],
      [
        "c",
        "amp"
      ],
      [
        "head",
        "ing"
      ],
      [
        "d",
        "ress"
      ],
      [
        "c",
        "ream"
      ],
      [
        "je",
        "ct"
      ],
      [
        "c",
        "ed"
      ],
      [
        "meet",
        "ing"
      ],
      [
        "c",
        "us"
      ],
      [
        "ah",
        "h"
      ],
      [
        "re",
        "nt"
      ],
      [
        "al",
        "bum"
      ],
      [
        "ve",
        "n"
      ],
      [
        "for",
        "tun"
      ],
      [
        "c",
        "ent"
      ],
      [
        "de",
        "ar"
      ],
      [
        "mm",
        "mm"
      ],
      [
        "grad",
        "u"
      ],
      [
        "se",
        "x"
      ],
      [
        "enjoy",
        "ing"
      ],
      [
        "defin",
        "ite"
      ],
      [
        "so",
        "re"
      ],
      [
        "s",
        "al"
      ],
      [
        "ho",
        "li"
      ],
      [
        "k",
        "ick"
      ],
      [
        "p",
        "et"
      ],
      [
        "p",
        "ool"
      ],
      [
        "exam",
        "s"
      ],
      [
        "to",
        "gether"
      ],
      [
        "ho",
        "ping"
      ],
      [
        "sh",
        "ort"
      ],
      [
        "mar",
        "k"
      ],
      [
        "ch",
        "at"
      ],
      [
        "wonder",
        "ful"
      ],
      [
        "yy",
        "yy"
      ],
      [
        "not_",
        "get"
      ],
      [
        "mo",
        "v"
      ],
      [
        "definite",
        "ly"
      ],
      [
        "ber",
        "ry"
      ],
      [
        "re",
        "lax"
      ],
      [
        "run",
        "ning"
      ],
      [
        "d",
        "ie"
      ],
      [
        "ro",
        "ll"
      ],
      [
        "do",
        "w"
      ],
      [
        "ma",
        "ch"
      ],
      [
        "pr",
        "ay"
      ],
      [
        "ca",
        "st"
      ],
      [
        "ar",
        "s"
      ],
      [
        "mo",
        "ment"
      ],
      [
        "s",
        "wi"
      ],
      [
        "b",
        "lu"
      ],
      [
        "ch",
        "ur"
      ],
      [
        "s",
        "low"
      ],
      [
        "r",
        "ad"
      ],
      [
        "some",
        "times"
      ],
      [
        "vis",
        "it"
      ],
      [
        "fuck",
        "ing"
      ],
      [
        "z",
        "ed"
      ],
      [
        "di",
        "ed"
      ],
      [
        "go",
        "in"
      ],
      [
        "bo",
        "ys"
      ],
      [
        "wr",
        "ite"
      ],
      [
        "u",
        "al"
      ],
      [
        "g",
        "in"
      ],
      [
        "b",
        "urn"
      ],
      [
        "i",
        "an"
      ],
      [
        "b",
        "by"
      ],
      [
        "ur",
        "s"
      ],
      [
        "fi",
        "re"
      ],
      [
        "cou",
        "ple"
      ],
      [
        "clo",
        "se"
      ],
      [
        "f",
        "lu"
      ],
      [
        "re",
        "vis"
      ],
      [
        "come",
        "s"
      ],
      [
        "g",
        "le"
      ],
      [
        "me",
        "ans"
      ],
      [
        "bl",
        "ood"
      ],
      [
        "ce",
        "pt"
      ],
      [
        "jo",
        "in"
      ],
      [
        "mov",
        "ies"
      ],
      [
        "it",
        "al"
      ],
      [
        "p",
        "at"
      ],
      [
        "chur",
        "ch"
      ],
      [
        "proble",
        "m"
      ],
      [
        "mu",
        "m"
      ],
      [
        "congr",
        "ats"
      ],
      [
        "f",
        "il"
      ],
      [
        "p",
        "rom"
      ],
      [
        "po",
        "int"
      ],
      [
        "wor",
        "th"
      ],
      [
        "fi",
        "gu"
      ],
      [
        "ri",
        "es"
      ],
      [
        "v",
        "ac"
      ],
      [
        "ta",
        "in"
      ],
      [
        "m",
        "ing"
      ],
      [
        "xx",
        "x"
      ],
      [
        "ch",
        "ick"
      ],
      [
        "is",
        "o"
      ],
      [
        "con",
        "f"
      ],
      [
        "lap",
        "top"
      ],
      [
        "fin",
        "al"
      ],
      [
        "love",
        "s"
      ],
      [
        "e",
        "yes"
      ],
      [
        "f",
        "ing"
      ],
      [
        "or",
        "der"
      ],
      [
        "eve",
        "ning"
      ],
      [
        "p",
        "arent"
      ],
      [
        "off",
        "ici"
      ],
      [
        "te",
        "a"
      ],
      [
        "we",
        "ird"
      ],
      [
        "d",
        "ance"
      ],
      [
        "po",
        "ss"
      ],
      [
        "m",
        "ood"
      ],
      [
        "month",
        "s"
      ],
      [
        "app",
        "o"
      ],
      [
        "you",
        "tube"
      ],
      [
        "ut",
        "e"
      ],
      [
        "ac",
        "count"
      ],
      [
        "pp",
        "l"
      ],
      [
        "down",
        "load"
      ],
      [
        "an",
        "e"
      ],
      [
        "home",
        "work"
      ],
      [
        "me",
        "t"
      ],
      [
        "p",
        "or"
      ],
      [
        "v",
        "ia"
      ],
      [
        "gre",
        "en"
      ],
      [
        "c",
        "tor"
      ],
      [
        "n",
        "um"
      ],
      [
        "ce",
        "le"
      ],
      [
        "u",
        "k"
      ],
      [
        "ch",
        "ee"
      ],
      [
        "p",
        "ra"
      ],
      [
        "happen",
        "ed"
      ],
      [
        "gy",
        "m"
      ],
      [
        "un",
        "fortun"
      ],
      [
        "cho",
        "co"
      ],
      [
        "ca",
        "ke"
      ],
      [
        "rea",
        "li"
      ],
      [
        "sh",
        "ine"
      ],
      [
        "an",
        "no"
      ],
      [
        "g",
        "ar"
      ],
      [
        "li",
        "e"
      ],
      [
        "sh",
        "ir"
      ],
      [
        "s",
        "id"
      ],
      [
        "ma",
        "th"
      ],
      [
        "bro",
        "ken"
      ],
      [
        "h",
        "oo"
      ],
      [
        "li",
        "l"
      ],
      [
        "song",
        "s"
      ],
      [
        "p",
        "age"
      ],
      [
        "v",
        "ice"
      ],
      [
        "i",
        "pod"
      ],
      [
        "a",
        "le"
      ],
      [
        "k",
        "o"
      ],
      [
        "to",
        "u"
      ],
      [
        "not_",
        "sure"
      ],
      [
        "g",
        "ard"
      ],
      [
        "rr",
        "rr"
      ],
      [
        "w",
        "t"
      ],
      [
        "poss",
        "i"
      ],
      [
        "f",
        "b"
      ],
      [
        "t",
        "rain"
      ],
      [
        "ss",
        "ss"
      ],
      [
        "par",
        "k"
      ],
      [
        "secon",
        "d"
      ],
      [
        "ti",
        "c"
      ],
      [
        "in",
        "st"
      ],
      [
        "interest",
        "ing"
      ],
      [
        "aa",
        "a"
      ],
      [
        "engl",
        "ish"
      ],
      [
        "ag",
        "ree"
      ],
      [
        "com",
        "ment"
      ],
      [
        "b",
        "at"
      ],
      [
        "see",
        "m"
      ],
      [
        "dif",
        "fer"
      ],
      [
        "wr",
        "iting"
      ],
      [
        "ticket",
        "s"
      ],
      [
        "ch",
        "ang"
      ],
      [
        "k",
        "it"
      ],
      [
        "in",
        "ess"
      ],
      [
        "lo",
        "ving"
      ],
      [
        "on",
        "t"
      ],
      [
        "study",
        "ing"
      ],
      [
        "anno",
        "y"
      ],
      [
        "s",
        "us"
      ],
      [
        "not_",
        "going"
      ],
      [
        "under",
        "stand"
      ],
      [
        "we",
        "b"
      ],
      [
        "f",
        "lo"
      ],
      [
        "ter",
        "s"
      ],
      [
        "s",
        "qu"
      ],
      [
        "sho",
        "p"
      ],
      [
        "ep",
        "iso"
      ],
      [
        "un",
        "d"
      ],
      [
        "m",
        "b"
      ],
      [
        "r",
        "and"
      ],
      [
        "th",
        "ro"
      ],
      [
        "g",
        "as"
      ],
      [
        "win",
        "dow"
      ],
      [
        "pa",
        "st"
      ],
      [
        "su",
        "b"
      ],
      [
        "up",
        "load"
      ],
      [
        "not_",
        "in"
      ],
      [
        "k",
        "a"
      ],
      [
        "ad",
        "e"
      ],
      [
        "te",
        "am"
      ],
      [
        "re",
        "n"
      ],
      [
        "jon",
        "as"
      ],
      [
        "k",
        "er"
      ],
      [
        "ur",
        "ing"
      ],
      [
        "lon",
        "don"
      ],
      [
        "ri",
        "de"
      ],
      [
        "suppo",
        "sed"
      ],
      [
        "k",
        "new"
      ],
      [
        "mo",
        "on"
      ],
      [
        "comple",
        "te"
      ],
      [
        "ti",
        "e"
      ],
      [
        "ans",
        "wer"
      ],
      [
        "mm",
        "m"
      ],
      [
        "xo",
        "xo"
      ],
      [
        "th",
        "urs"
      ],
      [
        "f",
        "li"
      ],
      [
        "wed",
        "ding"
      ],
      [
        "re",
        "ci"
      ],
      [
        "choco",
        "late"
      ],
      [
        "se",
        "arch"
      ],
      [
        "sto",
        "ry"
      ],
      [
        "mo",
        "ving"
      ],
      [
        "b",
        "ot"
      ],
      [
        "o",
        "s"
      ],
      [
        "ri",
        "st"
      ],
      [
        "wor",
        "st"
      ],
      [
        "parent",
        "s"
      ],
      [
        "o",
        "b"
      ],
      [
        "smi",
        "le"
      ],
      [
        "f",
        "light"
      ],
      [
        "fe",
        "ll"
      ],
      [
        "en",
        "ter"
      ],
      [
        "u",
        "e"
      ],
      [
        "wish",
        "ing"
      ],
      [
        "say",
        "ing"
      ],
      [
        "g",
        "or"
      ],
      [
        "ble",
        "ss"
      ],
      [
        "th",
        "ree"
      ],
      [
        "un",
        "k"
      ],
      [
        "ill",
        "s"
      ],
      [
        "c",
        "ard"
      ],
      [
        "c",
        "d"
      ],
      [
        "un",
        "i"
      ],
      [
        "sleep",
        "y"
      ],
      [
        "it",
        "ion"
      ],
      [
        "ge",
        "st"
      ],
      [
        "aw",
        "ards"
      ],
      [
        "ct",
        "ed"
      ],
      [
        "be",
        "at"
      ],
      [
        "lad",
        "y"
      ],
      [
        "for",
        "get"
      ],
      [
        "are",
        "n"
      ],
      [
        "bo",
        "ard"
      ],
      [
        "po",
        "wer"
      ],
      [
        "f",
        "it"
      ],
      [
        "unfortun",
        "ately"
      ],
      [
        "m",
        "er"
      ],
      [
        "ho",
        "ld"
      ],
      [
        "de",
        "press"
      ],
      [
        "dri",
        "ving"
      ],
      [
        "in",
        "a"
      ],
      [
        "twee",
        "ting"
      ],
      [
        "to",
        "ry"
      ],
      [
        "m",
        "al"
      ],
      [
        "d",
        "ate"
      ],
      [
        "w",
        "ing"
      ],
      [
        "co",
        "mm"
      ],
      [
        "up",
        "set"
      ],
      [
        "u",
        "lt"
      ],
      [
        "y",
        "u"
      ],
      [
        "co",
        "s"
      ],
      [
        "ye",
        "p"
      ],
      [
        "i",
        "st"
      ],
      [
        "f",
        "oot"
      ],
      [
        "p",
        "ot"
      ],
      [
        "s",
        "le"
      ],
      [
        "is",
        "ed"
      ],
      [
        "tou",
        "ch"
      ],
      [
        "e",
        "ye"
      ],
      [
        "ve",
        "l"
      ],
      [
        "o",
        "p"
      ],
      [
        "re",
        "cor"
      ],
      [
        "re",
        "s"
      ],
      [
        "do",
        "or"
      ],
      [
        "appo",
        "int"
      ],
      [
        "v",
        "al"
      ],
      [
        "t",
        "ee"
      ],
      [
        "k",
        "no"
      ],
      [
        "pa",
        "per"
      ],
      [
        "wor",
        "ds"
      ],
      [
        "u",
        "g"
      ],
      [
        "m",
        "as"
      ],
      [
        "picture",
        "s"
      ],
      [
        "ro",
        "ad"
      ],
      [
        "hh",
        "h"
      ],
      [
        "clean",
        "ing"
      ],
      [
        "b",
        "an"
      ],
      [
        "he",
        "a"
      ],
      [
        "hor",
        "rible"
      ],
      [
        "le",
        "g"
      ],
      [
        "s",
        "co"
      ],
      [
        "il",
        "s"
      ],
      [
        "ga",
        "ve"
      ],
      [
        "qu",
        "ick"
      ],
      [
        "m",
        "ou"
      ],
      [
        "ill",
        "y"
      ],
      [
        "g",
        "an"
      ],
      [
        "w",
        "it"
      ],
      [
        "du",
        "e"
      ],
      [
        "dream",
        "s"
      ],
      [
        "on",
        "s"
      ],
      [
        "drink",
        "ing"
      ],
      [
        "eas",
        "y"
      ],
      [
        "a",
        "li"
      ],
      [
        "sun",
        "shine"
      ],
      [
        "colle",
        "ge"
      ],
      [
        "sh",
        "ip"
      ],
      [
        "pro",
        "ject"
      ],
      [
        "ile",
        "d"
      ],
      [
        "gard",
        "en"
      ],
      [
        "m",
        "ic"
      ],
      [
        "t",
        "an"
      ],
      [
        "ch",
        "ance"
      ],
      [
        "e",
        "y"
      ],
      [
        "eep",
        "s"
      ],
      [
        "c",
        "ase"
      ],
      [
        "gr",
        "ound"
      ],
      [
        "b",
        "row"
      ],
      [
        "pr",
        "of"
      ],
      [
        "would",
        "n"
      ],
      [
        "app",
        "arent"
      ],
      [
        "pro",
        "du"
      ],
      [
        "k",
        "y"
      ],
      [
        "st",
        "ick"
      ],
      [
        "xx",
        "xx"
      ],
      [
        "thro",
        "at"
      ],
      [
        "wor",
        "se"
      ],
      [
        "si",
        "ve"
      ],
      [
        "n",
        "at"
      ],
      [
        "br",
        "it"
      ],
      [
        "d",
        "un"
      ],
      [
        "j",
        "or"
      ],
      [
        "fi",
        "ght"
      ],
      [
        "blu",
        "e"
      ],
      [
        "i",
        "ence"
      ],
      [
        "spe",
        "cial"
      ],
      [
        "s",
        "is"
      ],
      [
        "haha",
        "h"
      ],
      [
        "tu",
        "esday"
      ],
      [
        "li",
        "er"
      ],
      [
        "ic",
        "a"
      ],
      [
        "holi",
        "day"
      ],
      [
        "b",
        "day"
      ],
      [
        "wor",
        "ry"
      ],
      [
        "ci",
        "ally"
      ],
      [
        "long",
        "er"
      ],
      [
        "m",
        "is"
      ],
      [
        "app",
        "le"
      ],
      [
        "in",
        "es"
      ],
      [
        "st",
        "re"
      ],
      [
        "m",
        "il"
      ],
      [
        "ra",
        "ther"
      ],
      [
        "bu",
        "d"
      ],
      [
        "sle",
        "pt"
      ],
      [
        "what",
        "s"
      ],
      [
        "mi",
        "ley"
      ],
      [
        "ic",
        "s"
      ],
      [
        "sa",
        "fe"
      ],
      [
        "de",
        "li"
      ],
      [
        "pl",
        "us"
      ],
      [
        "sto",
        "r"
      ],
      [
        "sc",
        "ared"
      ],
      [
        "f",
        "m"
      ],
      [
        "ii",
        "ii"
      ],
      [
        "apparent",
        "ly"
      ],
      [
        "go",
        "ver"
      ],
      [
        "sm",
        "all"
      ],
      [
        "wt",
        "f"
      ],
      [
        "t",
        "ur"
      ],
      [
        "ri",
        "d"
      ],
      [
        "hu",
        "gs"
      ],
      [
        "c",
        "ous"
      ],
      [
        "does",
        "nt"
      ],
      [
        "c",
        "amer"
      ],
      [
        "ex",
        "pe"
      ],
      [
        "ab",
        "sol"
      ],
      [
        "l",
        "ar"
      ],
      [
        "h",
        "um"
      ],
      [
        "was",
        "h"
      ],
      [
        "po",
        "p"
      ],
      [
        "end",
        "ed"
      ],
      [
        "and",
        "y"
      ],
      [
        "f",
        "ish"
      ],
      [
        "fa",
        "ther"
      ],
      [
        "can",
        "not"
      ],
      [
        "e",
        "u"
      ],
      [
        "hu",
        "ge"
      ],
      [
        "k",
        "n"
      ],
      [
        "le",
        "ts"
      ],
      [
        "v",
        "s"
      ],
      [
        "fore",
        "ver"
      ],
      [
        "we",
        "bs"
      ],
      [
        "wh",
        "ite"
      ],
      [
        "sp",
        "ent"
      ],
      [
        "eve",
        "nt"
      ],
      [
        "d",
        "v"
      ],
      [
        "ou",
        "ch"
      ],
      [
        "j",
        "am"
      ],
      [
        "m",
        "tv"
      ],
      [
        "te",
        "x"
      ],
      [
        "sha",
        "me"
      ],
      [
        "te",
        "ach"
      ],
      [
        "s",
        "me"
      ],
      [
        "h",
        "an"
      ],
      [
        "st",
        "ress"
      ],
      [
        "oooo",
        "o"
      ],
      [
        "gl",
        "ass"
      ],
      [
        "ig",
        "n"
      ],
      [
        "upd",
        "ates"
      ],
      [
        "my",
        "space"
      ],
      [
        "ri",
        "p"
      ],
      [
        "p",
        "ur"
      ],
      [
        "vo",
        "ice"
      ],
      [
        "g",
        "row"
      ],
      [
        "think",
        "s"
      ],
      [
        "e",
        "v"
      ],
      [
        "war",
        "m"
      ],
      [
        "pl",
        "ans"
      ],
      [
        "ple",
        "as"
      ],
      [
        "ba",
        "be"
      ],
      [
        "ear",
        "lier"
      ],
      [
        "gra",
        "ph"
      ],
      [
        "bit",
        "ch"
      ],
      [
        "si",
        "st"
      ],
      [
        "con",
        "ne"
      ],
      [
        "p",
        "up"
      ],
      [
        "la",
        "zy"
      ],
      [
        "vac",
        "ation"
      ],
      [
        "vot",
        "e"
      ],
      [
        "dec",
        "id"
      ],
      [
        "ant",
        "s"
      ],
      [
        "wonder",
        "ing"
      ],
      [
        "th",
        "x"
      ],
      [
        "cr",
        "ash"
      ],
      [
        "re",
        "mind"
      ],
      [
        "da",
        "vid"
      ],
      [
        "hang",
        "ing"
      ],
      [
        "sk",
        "y"
      ],
      [
        "chi",
        "ld"
      ],
      [
        "w",
        "all"
      ],
      [
        "fre",
        "sh"
      ],
      [
        "p",
        "iss"
      ],
      [
        "g",
        "un"
      ],
      [
        "rad",
        "io"
      ],
      [
        "s",
        "po"
      ],
      [
        "e",
        "f"
      ],
      [
        "p",
        "ie"
      ],
      [
        "be",
        "er"
      ],
      [
        "r",
        "ound"
      ],
      [
        "cele",
        "br"
      ],
      [
        "shir",
        "t"
      ],
      [
        "if",
        "t"
      ],
      [
        "lu",
        "v"
      ],
      [
        "id",
        "k"
      ],
      [
        "en",
        "ti"
      ],
      [
        "r",
        "an"
      ],
      [
        "f",
        "ant"
      ],
      [
        "i",
        "re"
      ],
      [
        "i",
        "gh"
      ],
      [
        "b",
        "ly"
      ],
      [
        "bo",
        "w"
      ],
      [
        "d",
        "m"
      ],
      [
        "mess",
        "age"
      ],
      [
        "webs",
        "ite"
      ],
      [
        "a",
        "ust"
      ],
      [
        "show",
        "s"
      ],
      [
        "thurs",
        "day"
      ],
      [
        "sur",
        "pr"
      ],
      [
        "at",
        "t"
      ],
      [
        "f",
        "ic"
      ],
      [
        "d",
        "uring"
      ],
      [
        "no",
        "pe"
      ],
      [
        "k",
        "ers"
      ],
      [
        "er",
        "ing"
      ],
      [
        "absol",
        "ute"
      ],
      [
        "goo",
        "gle"
      ],
      [
        "on",
        "d"
      ],
      [
        "sup",
        "port"
      ],
      [
        "not_",
        "have"
      ],
      [
        "pre",
        "sent"
      ],
      [
        "differ",
        "ent"
      ],
      [
        "lear",
        "n"
      ],
      [
        "b",
        "en"
      ],
      [
        "th",
        "a"
      ],
      [
        "pi",
        "zz"
      ],
      [
        "es",
        "pe"
      ],
      [
        "bb",
        "q"
      ],
      [
        "ju",
        "ly"
      ],
      [
        "e",
        "le"
      ],
      [
        "ch",
        "an"
      ],
      [
        "app",
        "reci"
      ],
      [
        "la",
        "me"
      ],
      [
        "book",
        "s"
      ],
      [
        "f",
        "ans"
      ],
      [
        "b",
        "t"
      ],
      [
        "ho",
        "sp"
      ],
      [
        "h",
        "rs"
      ],
      [
        "is",
        "su"
      ],
      [
        "sad",
        "ly"
      ],
      [
        "te",
        "l"
      ],
      [
        "he",
        "al"
      ],
      [
        "cur",
        "rent"
      ],
      [
        "look",
        "ed"
      ],
      [
        "h",
        "ee"
      ],
      [
        "f",
        "at"
      ],
      [
        "scre",
        "en"
      ],
      [
        "num",
        "ber"
      ],
      [
        "sim",
        "s"
      ],
      [
        "turn",
        "ed"
      ],
      [
        "espe",
        "cially"
      ],
      [
        "de",
        "al"
      ],
      [
        "pa",
        "ck"
      ],
      [
        "ni",
        "ck"
      ],
      [
        "te",
        "m"
      ],
      [
        "m",
        "ate"
      ],
      [
        "ex",
        "act"
      ],
      [
        "fr",
        "ont"
      ],
      [
        "fre",
        "n"
      ],
      [
        "ar",
        "ri"
      ],
      [
        "in",
        "v"
      ],
      [
        "l",
        "one"
      ],
      [
        "la",
        "w"
      ],
      [
        "sha",
        "ll"
      ],
      [
        "j",
        "oh"
      ],
      [
        "chick",
        "en"
      ],
      [
        "f",
        "ab"
      ],
      [
        "y",
        "ummy"
      ],
      [
        "have",
        "nt"
      ],
      [
        "figu",
        "re"
      ],
      [
        "te",
        "ch"
      ],
      [
        "haha",
        "haha"
      ],
      [
        "mi",
        "x"
      ],
      [
        "all",
        "ow"
      ],
      [
        "con",
        "t"
      ],
      [
        "e",
        "ach"
      ],
      [
        "de",
        "f"
      ],
      [
        "follow",
        "friday"
      ],
      [
        "rand",
        "om"
      ],
      [
        "sto",
        "mach"
      ],
      [
        "ti",
        "st"
      ],
      [
        "fe",
        "st"
      ],
      [
        "se",
        "ll"
      ],
      [
        "in",
        "side"
      ],
      [
        "j",
        "us"
      ],
      [
        "v",
        "y"
      ],
      [
        "min",
        "s"
      ],
      [
        "me",
        "ant"
      ],
      [
        "fa",
        "ct"
      ],
      [
        "camer",
        "a"
      ],
      [
        "al",
        "right"
      ],
      [
        "h",
        "y"
      ],
      [
        "game",
        "s"
      ],
      [
        "c",
        "red"
      ],
      [
        "pizz",
        "a"
      ],
      [
        "c",
        "id"
      ],
      [
        "c",
        "as"
      ],
      [
        "me",
        "mor"
      ],
      [
        "d",
        "ang"
      ],
      [
        "v",
        "an"
      ],
      [
        "pla",
        "in"
      ],
      [
        "uu",
        "uu"
      ],
      [
        "wi",
        "fe"
      ],
      [
        "not_",
        "fun"
      ],
      [
        "air",
        "port"
      ],
      [
        "chee",
        "se"
      ],
      [
        "cry",
        "ing"
      ],
      [
        "episo",
        "de"
      ],
      [
        "y",
        "up"
      ],
      [
        "sa",
        "ve"
      ],
      [
        "bi",
        "ke"
      ],
      [
        "ust",
        "ed"
      ],
      [
        "li",
        "ked"
      ],
      [
        "clu",
        "b"
      ],
      [
        "ex",
        "cept"
      ],
      [
        "c",
        "ri"
      ],
      [
        "pa",
        "cking"
      ],
      [
        "offici",
        "ally"
      ],
      [
        "photo",
        "s"
      ],
      [
        "ll",
        "a"
      ],
      [
        "go",
        "sh"
      ],
      [
        "boy",
        "friend"
      ],
      [
        "ge",
        "ous"
      ],
      [
        "i",
        "can"
      ],
      [
        "sme",
        "ll"
      ],
      [
        "le",
        "nt"
      ],
      [
        "s",
        "am"
      ],
      [
        "ar",
        "gh"
      ],
      [
        "rain",
        "y"
      ],
      [
        "cti",
        "ve"
      ],
      [
        "ll",
        "en"
      ],
      [
        "ni",
        "e"
      ],
      [
        "fe",
        "lt"
      ],
      [
        "gradu",
        "ation"
      ],
      [
        "c",
        "s"
      ],
      [
        "b",
        "as"
      ],
      [
        "n",
        "in"
      ],
      [
        "l",
        "oo"
      ],
      [
        "re",
        "sp"
      ],
      [
        "i",
        "ma"
      ],
      [
        "sho",
        "es"
      ],
      [
        "wed",
        "n"
      ],
      [
        "hmm",
        "m"
      ],
      [
        "decid",
        "ed"
      ],
      [
        "s",
        "n"
      ],
      [
        "hu",
        "bby"
      ],
      [
        "h",
        "ind"
      ],
      [
        "do",
        "ctor"
      ],
      [
        "ex",
        "per"
      ],
      [
        "pr",
        "oud"
      ],
      [
        "i",
        "er"
      ],
      [
        "qu",
        "e"
      ],
      [
        "hu",
        "g"
      ],
      [
        "add",
        "ic"
      ],
      [
        "f",
        "y"
      ],
      [
        "work",
        "ed"
      ],
      [
        "brother",
        "s"
      ],
      [
        "li",
        "a"
      ],
      [
        "fin",
        "als"
      ],
      [
        "twi",
        "light"
      ],
      [
        "g",
        "ig"
      ],
      [
        "li",
        "es"
      ],
      [
        "k",
        "iss"
      ],
      [
        "d",
        "ge"
      ],
      [
        "pu",
        "ll"
      ],
      [
        "v",
        "ill"
      ],
      [
        "fe",
        "ver"
      ],
      [
        "di",
        "a"
      ],
      [
        "wh",
        "ate"
      ],
      [
        "joh",
        "n"
      ],
      [
        "w",
        "ine"
      ],
      [
        "pra",
        "cti"
      ],
      [
        "b",
        "ee"
      ],
      [
        "so",
        "ld"
      ],
      [
        "de",
        "ck"
      ],
      [
        "play",
        "ed"
      ],
      [
        "inter",
        "view"
      ],
      [
        "su",
        "m"
      ],
      [
        "g",
        "ee"
      ],
      [
        "me",
        "l"
      ],
      [
        "re",
        "le"
      ],
      [
        "need",
        "ed"
      ],
      [
        "hosp",
        "ital"
      ],
      [
        "pp",
        "y"
      ],
      [
        "il",
        "ar"
      ],
      [
        "um",
        "b"
      ],
      [
        "absolute",
        "ly"
      ],
      [
        "th",
        "row"
      ],
      [
        "not_",
        "sleep"
      ],
      [
        "for",
        "d"
      ],
      [
        "your",
        "self"
      ],
      [
        "ha",
        "h"
      ],
      [
        "li",
        "ving"
      ],
      [
        "sha",
        "re"
      ],
      [
        "t",
        "ay"
      ],
      [
        "men",
        "tion"
      ],
      [
        "gor",
        "geous"
      ],
      [
        "u",
        "h"
      ],
      [
        "v",
        "ir"
      ],
      [
        "p",
        "ink"
      ],
      [
        "ou",
        "n"
      ],
      [
        "wedn",
        "esday"
      ],
      [
        "fren",
        "ch"
      ],
      [
        "c",
        "ross"
      ],
      [
        "le",
        "n"
      ],
      [
        "ba",
        "th"
      ],
      [
        "ul",
        "ous"
      ],
      [
        "re",
        "l"
      ],
      [
        "me",
        "s"
      ],
      [
        "w",
        "ood"
      ],
      [
        "an",
        "n"
      ],
      [
        "pe",
        "ace"
      ],
      [
        "not_",
        "go"
      ],
      [
        "excit",
        "ing"
      ],
      [
        "sh",
        "oot"
      ],
      [
        "inst",
        "all"
      ],
      [
        "pu",
        "b"
      ],
      [
        "keep",
        "s"
      ],
      [
        "i",
        "la"
      ],
      [
        "ta",
        "ken"
      ],
      [
        "i",
        "ld"
      ],
      [
        "wish",
        "es"
      ],
      [
        "dis",
        "appoint"
      ],
      [
        "ught",
        "er"
      ],
      [
        "possi",
        "ble"
      ],
      [
        "di",
        "re"
      ],
      [
        "ex",
        "ha"
      ],
      [
        "re",
        "w"
      ],
      [
        "lone",
        "ly"
      ],
      [
        "bus",
        "iness"
      ],
      [
        "yy",
        "y"
      ],
      [
        "a",
        "part"
      ],
      [
        "end",
        "ing"
      ],
      [
        "gu",
        "it"
      ],
      [
        "e",
        "h"
      ],
      [
        "s",
        "ar"
      ],
      [
        "des",
        "er"
      ],
      [
        "mo",
        "de"
      ],
      [
        "not",
        "e"
      ],
      [
        "i",
        "z"
      ],
      [
        "b",
        "on"
      ],
      [
        "s",
        "and"
      ],
      [
        "dr",
        "unk"
      ],
      [
        "em",
        "p"
      ],
      [
        "m",
        "ill"
      ],
      [
        "zz",
        "zz"
      ],
      [
        "not_",
        "feeling"
      ],
      [
        "ar",
        "m"
      ],
      [
        "sc",
        "ary"
      ],
      [
        "ti",
        "es"
      ],
      [
        "the",
        "s"
      ],
      [
        "start",
        "s"
      ],
      [
        "lo",
        "g"
      ],
      [
        "ser",
        "vice"
      ],
      [
        "ment",
        "s"
      ],
      [
        "not_",
        "working"
      ],
      [
        "fee",
        "t"
      ],
      [
        "ap",
        "pe"
      ],
      [
        "p",
        "oo"
      ],
      [
        "h",
        "ates"
      ],
      [
        "vo",
        "l"
      ],
      [
        "bu",
        "cks"
      ],
      [
        "g",
        "ay"
      ],
      [
        "exact",
        "ly"
      ],
      [
        "ha",
        "m"
      ],
      [
        "r",
        "ay"
      ],
      [
        "good",
        "bye"
      ],
      [
        "al",
        "ong"
      ],
      [
        "gr",
        "ou"
      ],
      [
        "d",
        "et"
      ],
      [
        "reali",
        "zed"
      ],
      [
        "happen",
        "s"
      ],
      [
        "th",
        "in"
      ],
      [
        "be",
        "hind"
      ],
      [
        "ho",
        "st"
      ],
      [
        "spe",
        "ak"
      ],
      [
        "ve",
        "nt"
      ],
      [
        "ic",
        "al"
      ],
      [
        "p",
        "es"
      ],
      [
        "w",
        "at"
      ],
      [
        "ll",
        "i"
      ],
      [
        "gi",
        "ving"
      ],
      [
        "quest",
        "ion"
      ],
      [
        "we",
        "st"
      ],
      [
        "fil",
        "m"
      ],
      [
        "ed",
        "u"
      ],
      [
        "ad",
        "a"
      ],
      [
        "know",
        "s"
      ],
      [
        "tra",
        "ck"
      ],
      [
        "tr",
        "ans"
      ],
      [
        "whate",
        "ver"
      ],
      [
        "at",
        "ive"
      ],
      [
        "g",
        "ut"
      ],
      [
        "not_",
        "idea"
      ],
      [
        "ci",
        "ous"
      ],
      [
        "dy",
        "ing"
      ],
      [
        "comp",
        "any"
      ],
      [
        "guit",
        "ar"
      ],
      [
        "wal",
        "king"
      ],
      [
        "t",
        "able"
      ],
      [
        "all",
        "er"
      ],
      [
        "al",
        "though"
      ],
      [
        "ca",
        "li"
      ],
      [
        "wa",
        "king"
      ],
      [
        "ro",
        "b"
      ],
      [
        "ve",
        "gas"
      ],
      [
        "gg",
        "ing"
      ],
      [
        "ast",
        "ic"
      ],
      [
        "annoy",
        "ing"
      ],
      [
        "not_",
        "like"
      ],
      [
        "eeee",
        "eeee"
      ],
      [
        "t",
        "ummy"
      ],
      [
        "sh",
        "ut"
      ],
      [
        "lo",
        "se"
      ],
      [
        "every",
        "body"
      ],
      [
        "your",
        "s"
      ],
      [
        "oh",
        "h"
      ],
      [
        "a",
        "lot"
      ],
      [
        "j",
        "um"
      ],
      [
        "s",
        "es"
      ],
      [
        "po",
        "sit"
      ],
      [
        "ex",
        "tra"
      ],
      [
        "dar",
        "k"
      ],
      [
        "v",
        "ic"
      ],
      [
        "bur",
        "nt"
      ],
      [
        "is",
        "nt"
      ],
      [
        "clo",
        "thes"
      ],
      [
        "vers",
        "ion"
      ],
      [
        "d",
        "at"
      ],
      [
        "get",
        "tin"
      ],
      [
        "heal",
        "th"
      ],
      [
        "not_",
        "been"
      ],
      [
        "re",
        "su"
      ],
      [
        "ent",
        "s"
      ],
      [
        "di",
        "o"
      ],
      [
        "plan",
        "e"
      ],
      [
        "d",
        "le"
      ],
      [
        "s",
        "li"
      ],
      [
        "de",
        "ath"
      ],
      [
        "f",
        "ill"
      ],
      [
        "c",
        "c"
      ],
      [
        "relax",
        "ing"
      ],
      [
        "mm",
        "ing"
      ],
      [
        "kill",
        "ing"
      ],
      [
        "st",
        "ate"
      ],
      [
        "j",
        "er"
      ],
      [
        "gr",
        "am"
      ],
      [
        "night",
        "s"
      ],
      [
        "stre",
        "et"
      ],
      [
        "fant",
        "astic"
      ],
      [
        "co",
        "l"
      ],
      [
        "b",
        "ay"
      ],
      [
        "ad",
        "o"
      ],
      [
        "minut",
        "e"
      ],
      [
        "not_",
        "you"
      ],
      [
        "mo",
        "b"
      ],
      [
        "ess",
        "ion"
      ],
      [
        "an",
        "o"
      ],
      [
        "tw",
        "een"
      ],
      [
        "ba",
        "g"
      ],
      [
        "i",
        "mag"
      ],
      [
        "hu",
        "h"
      ],
      [
        "b",
        "al"
      ],
      [
        "b",
        "ank"
      ],
      [
        "s",
        "an"
      ],
      [
        "r",
        "or"
      ],
      [
        "ma",
        "in"
      ],
      [
        "p",
        "c"
      ],
      [
        "mark",
        "et"
      ],
      [
        "ain",
        "t"
      ],
      [
        "enjoy",
        "ed"
      ],
      [
        "w",
        "ind"
      ],
      [
        "n",
        "on"
      ],
      [
        "h",
        "at"
      ],
      [
        "video",
        "s"
      ],
      [
        "pass",
        "ed"
      ],
      [
        "cle",
        "ar"
      ],
      [
        "d",
        "ig"
      ],
      [
        "y",
        "um"
      ],
      [
        "ter",
        "rible"
      ],
      [
        "v",
        "ious"
      ],
      [
        "recor",
        "d"
      ],
      [
        "post",
        "ed"
      ],
      [
        "a",
        "head"
      ],
      [
        "l",
        "an"
      ],
      [
        "p",
        "al"
      ],
      [
        "b",
        "rain"
      ],
      [
        "stra",
        "ight"
      ],
      [
        "c",
        "ough"
      ],
      [
        "co",
        "z"
      ],
      [
        "sh",
        "i"
      ],
      [
        "tr",
        "ou"
      ],
      [
        "sp",
        "ot"
      ],
      [
        "mom",
        "my"
      ],
      [
        "be",
        "tween"
      ],
      [
        "sp",
        "ir"
      ],
      [
        "stay",
        "ing"
      ],
      [
        "m",
        "all"
      ],
      [
        "k",
        "i"
      ],
      [
        "sing",
        "le"
      ],
      [
        "de",
        "st"
      ],
      [
        "ie",
        "ld"
      ],
      [
        "it",
        "ed"
      ],
      [
        "la",
        "kers"
      ],
      [
        "bu",
        "ild"
      ],
      [
        "da",
        "ughter"
      ],
      [
        "count",
        "ry"
      ],
      [
        "mother",
        "s"
      ],
      [
        "revis",
        "ion"
      ],
      [
        "co",
        "lor"
      ],
      [
        "sing",
        "ing"
      ],
      [
        "han",
        "gover"
      ],
      [
        "late",
        "ly"
      ],
      [
        "he",
        "at"
      ],
      [
        "s",
        "har"
      ],
      [
        "a",
        "va"
      ],
      [
        "wear",
        "ing"
      ],
      [
        "di",
        "es"
      ],
      [
        "g",
        "ust"
      ],
      [
        "ind",
        "eed"
      ],
      [
        "his",
        "tory"
      ],
      [
        "as",
        "ked"
      ],
      [
        "oo",
        "h"
      ],
      [
        "sh",
        "in"
      ],
      [
        "sho",
        "t"
      ],
      [
        "ch",
        "u"
      ],
      [
        "ex",
        "t"
      ],
      [
        "g",
        "ing"
      ],
      [
        "bum",
        "med"
      ],
      [
        "ja",
        "ck"
      ],
      [
        "head",
        "ed"
      ],
      [
        "or",
        "ts"
      ],
      [
        "or",
        "k"
      ],
      [
        "fm",
        "l"
      ],
      [
        "che",
        "er"
      ],
      [
        "tra",
        "il"
      ],
      [
        "ne",
        "l"
      ],
      [
        "h",
        "us"
      ],
      [
        "s",
        "mo"
      ],
      [
        "k",
        "at"
      ],
      [
        "do",
        "ll"
      ],
      [
        "us",
        "ually"
      ],
      [
        "ing",
        "s"
      ],
      [
        "h",
        "on"
      ],
      [
        "f",
        "ut"
      ],
      [
        "no",
        "se"
      ],
      [
        "ca",
        "kes"
      ],
      [
        "chang",
        "ed"
      ],
      [
        "ma",
        "jor"
      ],
      [
        "dv",
        "d"
      ],
      [
        "su",
        "g"
      ],
      [
        "prof",
        "ile"
      ],
      [
        "cid",
        "ent"
      ],
      [
        "not_",
        "it"
      ],
      [
        "trou",
        "ble"
      ],
      [
        "f",
        "la"
      ],
      [
        "c",
        "ru"
      ],
      [
        "ho",
        "tel"
      ],
      [
        "frea",
        "king"
      ],
      [
        "ha",
        "y"
      ],
      [
        "ll",
        "ll"
      ],
      [
        "ic",
        "ally"
      ],
      [
        "dad",
        "dy"
      ],
      [
        "r",
        "d"
      ],
      [
        "complete",
        "ly"
      ],
      [
        "blood",
        "y"
      ],
      [
        "no",
        "body"
      ],
      [
        "aw",
        "ful"
      ],
      [
        "n",
        "ut"
      ],
      [
        "lo",
        "gy"
      ],
      [
        "do",
        "gs"
      ],
      [
        "pr",
        "in"
      ],
      [
        "ha",
        "v"
      ],
      [
        "ss",
        "s"
      ],
      [
        "me",
        "nd"
      ],
      [
        "fee",
        "d"
      ],
      [
        "b",
        "un"
      ],
      [
        "ni",
        "a"
      ],
      [
        "ty",
        "pe"
      ],
      [
        "sou",
        "th"
      ],
      [
        "not_",
        "work"
      ],
      [
        "ff",
        "ic"
      ],
      [
        "be",
        "gin"
      ],
      [
        "un",
        "es"
      ],
      [
        "watch",
        "in"
      ],
      [
        "vill",
        "e"
      ],
      [
        "mo",
        "ved"
      ],
      [
        "b",
        "c"
      ],
      [
        "k",
        "ar"
      ],
      [
        "sex",
        "y"
      ],
      [
        "cous",
        "in"
      ],
      [
        "wor",
        "ried"
      ],
      [
        "disappoint",
        "ed"
      ],
      [
        "n",
        "one"
      ],
      [
        "mc",
        "fly"
      ],
      [
        "fing",
        "ers"
      ],
      [
        "grad",
        "e"
      ],
      [
        "ru",
        "in"
      ],
      [
        "eu",
        "ro"
      ],
      [
        "current",
        "ly"
      ],
      [
        "re",
        "ce"
      ],
      [
        "ch",
        "ris"
      ],
      [
        "tay",
        "lor"
      ],
      [
        "o",
        "c"
      ],
      [
        "bla",
        "h"
      ],
      [
        "des",
        "ign"
      ],
      [
        "on",
        "to"
      ],
      [
        "rr",
        "r"
      ],
      [
        "aust",
        "ra"
      ],
      [
        "other",
        "s"
      ],
      [
        "b",
        "right"
      ],
      [
        "pro",
        "per"
      ],
      [
        "ch",
        "ic"
      ],
      [
        "y",
        "r"
      ],
      [
        "tra",
        "ffic"
      ],
      [
        "dis",
        "ney"
      ],
      [
        "clo",
        "sed"
      ],
      [
        "some",
        "where"
      ],
      [
        "ny",
        "c"
      ],
      [
        "piss",
        "ed"
      ],
      [
        "dun",
        "no"
      ],
      [
        "c",
        "am"
      ],
      [
        "ca",
        "ught"
      ],
      [
        "near",
        "ly"
      ],
      [
        "f",
        "our"
      ],
      [
        "spend",
        "ing"
      ],
      [
        "ti",
        "v"
      ],
      [
        "not_",
        "on"
      ],
      [
        "sp",
        "am"
      ],
      [
        "exha",
        "usted"
      ],
      [
        "congr",
        "at"
      ],
      [
        "stor",
        "m"
      ],
      [
        "mob",
        "ile"
      ],
      [
        "in",
        "fo"
      ],
      [
        "jo",
        "e"
      ],
      [
        "dou",
        "ble"
      ],
      [
        "mat",
        "ter"
      ],
      [
        "mou",
        "th"
      ],
      [
        "na",
        "h"
      ],
      [
        "fix",
        "ed"
      ],
      [
        "ra",
        "id"
      ],
      [
        "sor",
        "t"
      ],
      [
        "you",
        "ng"
      ],
      [
        "it",
        "unes"
      ],
      [
        "hand",
        "s"
      ],
      [
        "w",
        "k"
      ],
      [
        "at",
        "ta"
      ],
      [
        "wo",
        "man"
      ],
      [
        "no",
        "o"
      ],
      [
        "mag",
        "ic"
      ],
      [
        "l",
        "m"
      ],
      [
        "ne",
        "igh"
      ],
      [
        "sug",
        "gest"
      ],
      [
        "l",
        "er"
      ],
      [
        "chill",
        "in"
      ],
      [
        "mil",
        "k"
      ],
      [
        "grou",
        "p"
      ],
      [
        "proble",
        "ms"
      ],
      [
        "gg",
        "gg"
      ],
      [
        "ta",
        "kes"
      ],
      [
        "b",
        "f"
      ],
      [
        "fut",
        "ure"
      ],
      [
        "i",
        "li"
      ],
      [
        "de",
        "mi"
      ],
      [
        "ic",
        "ed"
      ],
      [
        "math",
        "s"
      ],
      [
        "b",
        "last"
      ],
      [
        "w",
        "et"
      ],
      [
        "f",
        "ed"
      ],
      [
        "h",
        "ilar"
      ],
      [
        "sh",
        "out"
      ],
      [
        "f",
        "tw"
      ],
      [
        "f",
        "ro"
      ],
      [
        "en",
        "er"
      ],
      [
        "sa",
        "le"
      ],
      [
        "des",
        "k"
      ],
      [
        "soooo",
        "o"
      ],
      [
        "w",
        "ise"
      ],
      [
        "fo",
        "x"
      ],
      [
        "fo",
        "l"
      ],
      [
        "ther",
        "es"
      ],
      [
        "su",
        "c"
      ],
      [
        "j",
        "en"
      ],
      [
        "qui",
        "et"
      ],
      [
        "hus",
        "band"
      ],
      [
        "nor",
        "mal"
      ],
      [
        "k",
        "ate"
      ],
      [
        "window",
        "s"
      ],
      [
        "b",
        "our"
      ],
      [
        "h",
        "oney"
      ],
      [
        "s",
        "illy"
      ],
      [
        "st",
        "al"
      ],
      [
        "sto",
        "n"
      ],
      [
        "tweet",
        "deck"
      ],
      [
        "not_",
        "know"
      ],
      [
        "a",
        "po"
      ],
      [
        "man",
        "ag"
      ],
      [
        "not_",
        "me"
      ],
      [
        "appreci",
        "ate"
      ],
      [
        "sto",
        "pped"
      ],
      [
        "dro",
        "p"
      ],
      [
        "b",
        "io"
      ],
      [
        "s",
        "na"
      ],
      [
        "ne",
        "ck"
      ],
      [
        "ch",
        "rist"
      ],
      [
        "us",
        "ual"
      ],
      [
        "ca",
        "p"
      ],
      [
        "m",
        "atch"
      ],
      [
        "g",
        "ri"
      ],
      [
        "com",
        "mend"
      ],
      [
        "b",
        "ill"
      ],
      [
        "not_",
        "looking"
      ],
      [
        "bu",
        "ll"
      ],
      [
        "b",
        "ase"
      ],
      [
        "c",
        "ting"
      ],
      [
        "he",
        "w"
      ],
      [
        "u",
        "d"
      ],
      [
        "il",
        "ing"
      ],
      [
        "r",
        "us"
      ],
      [
        "end",
        "s"
      ],
      [
        "not_",
        "bad"
      ],
      [
        "et",
        "c"
      ],
      [
        "se",
        "cre"
      ],
      [
        "black",
        "berry"
      ],
      [
        "t",
        "raining"
      ],
      [
        "con",
        "sid"
      ],
      [
        "e",
        "pic"
      ],
      [
        "sen",
        "se"
      ],
      [
        "so",
        "ft"
      ],
      [
        "ac",
        "cident"
      ],
      [
        "swi",
        "mming"
      ],
      [
        "p",
        "in"
      ],
      [
        "aaaa",
        "aaaa"
      ],
      [
        "con",
        "tin"
      ],
      [
        "practi",
        "ce"
      ],
      [
        "re",
        "commend"
      ],
      [
        "amer",
        "ican"
      ],
      [
        "lay",
        "ing"
      ],
      [
        "ava",
        "ila"
      ],
      [
        "dan",
        "cing"
      ],
      [
        "do",
        "in"
      ],
      [
        "back",
        "ground"
      ],
      [
        "pup",
        "py"
      ],
      [
        "t",
        "at"
      ],
      [
        "fl",
        "at"
      ],
      [
        "plan",
        "ning"
      ],
      [
        "ad",
        "am"
      ],
      [
        "ta",
        "lent"
      ],
      [
        "pa",
        "ir"
      ],
      [
        "min",
        "i"
      ],
      [
        "mid",
        "dle"
      ],
      [
        "se",
        "a"
      ],
      [
        "re",
        "view"
      ],
      [
        "ter",
        "y"
      ],
      [
        "th",
        "ru"
      ],
      [
        "class",
        "es"
      ],
      [
        "h",
        "one"
      ],
      [
        "sp",
        "ring"
      ],
      [
        "sit",
        "y"
      ],
      [
        "t",
        "it"
      ],
      [
        "congrat",
        "ul"
      ],
      [
        "h",
        "ood"
      ],
      [
        "x",
        "i"
      ],
      [
        "is",
        "ing"
      ],
      [
        "squ",
        "are"
      ],
      [
        "mon",
        "t"
      ],
      [
        "bu",
        "mmer"
      ],
      [
        "not_",
        "but"
      ],
      [
        "hilar",
        "ious"
      ],
      [
        "do",
        "m"
      ],
      [
        "ph",
        "ones"
      ],
      [
        "cer",
        "tain"
      ],
      [
        "availa",
        "ble"
      ],
      [
        "sch",
        "edu"
      ],
      [
        "j",
        "k"
      ],
      [
        "wr",
        "it"
      ],
      [
        "call",
        "ing"
      ],
      [
        "che",
        "l"
      ],
      [
        "im",
        "port"
      ],
      [
        "not_",
        "happy"
      ],
      [
        "can",
        "cell"
      ],
      [
        "dou",
        "bt"
      ],
      [
        "ch",
        "er"
      ],
      [
        "bra",
        "z"
      ],
      [
        "j",
        "ay"
      ],
      [
        "of",
        "ten"
      ],
      [
        "gen",
        "er"
      ],
      [
        "r",
        "on"
      ],
      [
        "de",
        "gre"
      ],
      [
        "ser",
        "ies"
      ],
      [
        "f",
        "ield"
      ],
      [
        "n",
        "ation"
      ],
      [
        "oo",
        "ps"
      ],
      [
        "h",
        "es"
      ],
      [
        "y",
        "ah"
      ],
      [
        "ex",
        "pen"
      ],
      [
        "int",
        "en"
      ],
      [
        "ra",
        "c"
      ],
      [
        "is",
        "on"
      ],
      [
        "se",
        "at"
      ],
      [
        "fav",
        "our"
      ],
      [
        "p",
        "eeps"
      ],
      [
        "st",
        "at"
      ],
      [
        "h",
        "ills"
      ],
      [
        "st",
        "ri"
      ],
      [
        "le",
        "ad"
      ],
      [
        "ta",
        "ste"
      ],
      [
        "be",
        "l"
      ],
      [
        "ale",
        "x"
      ],
      [
        "h",
        "anna"
      ],
      [
        "co",
        "py"
      ],
      [
        "la",
        "und"
      ],
      [
        "fa",
        "iled"
      ],
      [
        "pro",
        "b"
      ],
      [
        "le",
        "gs"
      ],
      [
        "oooo",
        "oo"
      ],
      [
        "fr",
        "ance"
      ],
      [
        "suc",
        "cess"
      ],
      [
        "not_",
        "as"
      ],
      [
        "con",
        "ta"
      ],
      [
        "sk",
        "in"
      ],
      [
        "tre",
        "k"
      ],
      [
        "i",
        "or"
      ],
      [
        "at",
        "ure"
      ],
      [
        "pa",
        "id"
      ],
      [
        "blo",
        "ck"
      ],
      [
        "mi",
        "les"
      ],
      [
        "thought",
        "s"
      ],
      [
        "er",
        "ed"
      ],
      [
        "en",
        "g"
      ],
      [
        "la",
        "ke"
      ],
      [
        "d",
        "c"
      ],
      [
        "d",
        "ry"
      ],
      [
        "has",
        "n"
      ],
      [
        "conf",
        "used"
      ],
      [
        "star",
        "bucks"
      ],
      [
        "bad",
        "ly"
      ],
      [
        "cl",
        "ou"
      ],
      [
        "glass",
        "es"
      ],
      [
        "co",
        "de"
      ],
      [
        "trail",
        "er"
      ],
      [
        "p",
        "ush"
      ],
      [
        "laund",
        "ry"
      ],
      [
        "tee",
        "th"
      ],
      [
        "j",
        "es"
      ],
      [
        "put",
        "ting"
      ],
      [
        "e",
        "gg"
      ],
      [
        "v",
        "ous"
      ],
      [
        "her",
        "o"
      ],
      [
        "could",
        "nt"
      ],
      [
        "bud",
        "dy"
      ],
      [
        "b",
        "ru"
      ],
      [
        "ver",
        "se"
      ],
      [
        "str",
        "ong"
      ],
      [
        "follow",
        "ed"
      ],
      [
        "sh",
        "es"
      ],
      [
        "br",
        "and"
      ],
      [
        "y",
        "all"
      ],
      [
        "ra",
        "ce"
      ],
      [
        "an",
        "im"
      ],
      [
        "pro",
        "gram"
      ],
      [
        "ul",
        "ar"
      ],
      [
        "chic",
        "ago"
      ],
      [
        "at",
        "l"
      ],
      [
        "not_",
        "see"
      ],
      [
        "dro",
        "pped"
      ],
      [
        "a",
        "un"
      ],
      [
        "bo",
        "ther"
      ],
      [
        "cho",
        "ice"
      ],
      [
        "cover",
        "ed"
      ],
      [
        "d",
        "nt"
      ],
      [
        "ar",
        "ti"
      ],
      [
        "dd",
        "dd"
      ],
      [
        "re",
        "turn"
      ],
      [
        "gut",
        "ted"
      ],
      [
        "as",
        "king"
      ],
      [
        "go",
        "ld"
      ],
      [
        "suppo",
        "se"
      ],
      [
        "co",
        "st"
      ],
      [
        "send",
        "ing"
      ],
      [
        "st",
        "ation"
      ],
      [
        "b",
        "are"
      ],
      [
        "g",
        "ro"
      ],
      [
        "lear",
        "ning"
      ],
      [
        "den",
        "tist"
      ],
      [
        "kn",
        "ee"
      ],
      [
        "and",
        "a"
      ],
      [
        "b",
        "ff"
      ],
      [
        "e",
        "mo"
      ],
      [
        "any",
        "ways"
      ],
      [
        "ah",
        "hhhh"
      ],
      [
        "hone",
        "st"
      ],
      [
        "dar",
        "n"
      ],
      [
        "so",
        "m"
      ],
      [
        "load",
        "s"
      ],
      [
        "but",
        "ton"
      ],
      [
        "was",
        "nt"
      ],
      [
        "feel",
        "in"
      ],
      [
        "help",
        "ing"
      ],
      [
        "spe",
        "ll"
      ],
      [
        "f",
        "low"
      ],
      [
        "st",
        "ed"
      ],
      [
        "ct",
        "s"
      ],
      [
        "austra",
        "lia"
      ],
      [
        "ner",
        "vous"
      ],
      [
        "cra",
        "ck"
      ],
      [
        "ger",
        "many"
      ],
      [
        "cancell",
        "ed"
      ],
      [
        "bu",
        "g"
      ],
      [
        "h",
        "m"
      ],
      [
        "li",
        "kes"
      ],
      [
        "gg",
        "ed"
      ],
      [
        "ms",
        "n"
      ],
      [
        "enti",
        "re"
      ],
      [
        "ear",
        "th"
      ],
      [
        "lin",
        "es"
      ],
      [
        "flo",
        "or"
      ],
      [
        "chan",
        "nel"
      ],
      [
        "congratul",
        "ations"
      ],
      [
        "sty",
        "le"
      ],
      [
        "kid",
        "ding"
      ],
      [
        "stu",
        "d"
      ],
      [
        "check",
        "ing"
      ],
      [
        "p",
        "ee"
      ],
      [
        "ni",
        "c"
      ],
      [
        "gu",
        "e"
      ],
      [
        "d",
        "ed"
      ],
      [
        "ex",
        "c"
      ],
      [
        "sw",
        "ine"
      ],
      [
        "b",
        "unch"
      ],
      [
        "depress",
        "ed"
      ],
      [
        "f",
        "ive"
      ],
      [
        "should",
        "n"
      ],
      [
        "ction",
        "s"
      ],
      [
        "tre",
        "nd"
      ],
      [
        "ho",
        "ly"
      ],
      [
        "or",
        "ig"
      ],
      [
        "k",
        "ay"
      ],
      [
        "w",
        "oot"
      ],
      [
        "pl",
        "z"
      ],
      [
        "a",
        "v"
      ],
      [
        "ahhh",
        "h"
      ],
      [
        "issu",
        "es"
      ],
      [
        "keep",
        "ing"
      ],
      [
        "b",
        "ing"
      ],
      [
        "not_",
        "let"
      ],
      [
        "ck",
        "y"
      ],
      [
        "bo",
        "ss"
      ],
      [
        "ste",
        "p"
      ],
      [
        "th",
        "under"
      ],
      [
        "ad",
        "or"
      ],
      [
        "import",
        "ant"
      ],
      [
        "af",
        "raid"
      ],
      [
        "h",
        "r"
      ],
      [
        "y",
        "ork"
      ],
      [
        "ext",
        "reme"
      ],
      [
        "y",
        "ard"
      ],
      [
        "secre",
        "t"
      ],
      [
        "ver",
        "sity"
      ],
      [
        "ust",
        "r"
      ],
      [
        "im",
        "press"
      ],
      [
        "ide",
        "as"
      ],
      [
        "bir",
        "d"
      ],
      [
        "l",
        "at"
      ],
      [
        "z",
        "a"
      ],
      [
        "sc",
        "r"
      ],
      [
        "fall",
        "ing"
      ],
      [
        "kit",
        "ty"
      ],
      [
        "m",
        "art"
      ],
      [
        "person",
        "al"
      ],
      [
        "every",
        "day"
      ],
      [
        "t",
        "ar"
      ],
      [
        "c",
        "ried"
      ],
      [
        "h",
        "ook"
      ],
      [
        "ch",
        "ed"
      ],
      [
        "am",
        "i"
      ],
      [
        "twitter",
        "ing"
      ],
      [
        "kill",
        "ed"
      ],
      [
        "sy",
        "ste"
      ],
      [
        "call",
        "s"
      ],
      [
        "so",
        "cial"
      ],
      [
        "buy",
        "ing"
      ],
      [
        "some",
        "body"
      ],
      [
        "arti",
        "cle"
      ],
      [
        "x",
        "box"
      ],
      [
        "au",
        "gust"
      ],
      [
        "allow",
        "ed"
      ],
      [
        "ma",
        "ster"
      ],
      [
        "is",
        "land"
      ],
      [
        "hanna",
        "h"
      ],
      [
        "c",
        "oo"
      ],
      [
        "h",
        "ill"
      ],
      [
        "un",
        "less"
      ],
      [
        "find",
        "ing"
      ],
      [
        "bot",
        "tle"
      ],
      [
        "frea",
        "kin"
      ],
      [
        "ho",
        "we"
      ],
      [
        "lad",
        "ies"
      ],
      [
        "not_",
        "want"
      ],
      [
        "mid",
        "night"
      ],
      [
        "arri",
        "ved"
      ],
      [
        "l",
        "ver"
      ],
      [
        "ch",
        "es"
      ],
      [
        "aller",
        "g"
      ],
      [
        "sp",
        "an"
      ],
      [
        "be",
        "come"
      ],
      [
        "te",
        "mp"
      ],
      [
        "expen",
        "sive"
      ],
      [
        "n",
        "u"
      ],
      [
        "ro",
        "cks"
      ],
      [
        "m",
        "ass"
      ],
      [
        "to",
        "ri"
      ],
      [
        "mor",
        "ow"
      ],
      [
        "tell",
        "ing"
      ],
      [
        "oo",
        "oh"
      ],
      [
        "dan",
        "ny"
      ],
      [
        "not_",
        "fair"
      ],
      [
        "j",
        "our"
      ],
      [
        "prom",
        "ise"
      ],
      [
        "are",
        "a"
      ],
      [
        "m",
        "ama"
      ],
      [
        "lo",
        "sing"
      ],
      [
        "brea",
        "king"
      ],
      [
        "st",
        "ru"
      ],
      [
        "li",
        "ed"
      ],
      [
        "deli",
        "cious"
      ],
      [
        "check",
        "ed"
      ],
      [
        "c",
        "ree"
      ],
      [
        "l",
        "oud"
      ],
      [
        "li",
        "br"
      ],
      [
        "too",
        "th"
      ],
      [
        "tt",
        "tt"
      ],
      [
        "not_",
        "gonna"
      ],
      [
        "li",
        "p"
      ],
      [
        "tw",
        "eeps"
      ],
      [
        "howe",
        "ver"
      ],
      [
        "o",
        "l"
      ],
      [
        "be",
        "ar"
      ],
      [
        "any",
        "where"
      ],
      [
        "as",
        "sign"
      ],
      [
        "s",
        "now"
      ],
      [
        "work",
        "out"
      ],
      [
        "f",
        "ra"
      ],
      [
        "we",
        "ight"
      ],
      [
        "resp",
        "on"
      ],
      [
        "sh",
        "ift"
      ],
      [
        "de",
        "p"
      ],
      [
        "d",
        "ir"
      ],
      [
        "s",
        "ni"
      ],
      [
        "upd",
        "ated"
      ],
      [
        "depress",
        "ing"
      ],
      [
        "j",
        "b"
      ],
      [
        "s",
        "we"
      ],
      [
        "n",
        "s"
      ],
      [
        "en",
        "e"
      ],
      [
        "c",
        "la"
      ],
      [
        "happen",
        "ing"
      ],
      [
        "b",
        "re"
      ],
      [
        "again",
        "st"
      ],
      [
        "i",
        "v"
      ],
      [
        "ess",
        "ay"
      ],
      [
        "be",
        "ll"
      ],
      [
        "w",
        "is"
      ],
      [
        "lo",
        "v"
      ],
      [
        "a",
        "ha"
      ],
      [
        "se",
        "y"
      ],
      [
        "sun",
        "burn"
      ],
      [
        "posit",
        "ive"
      ],
      [
        "af",
        "ford"
      ],
      [
        "p",
        "ants"
      ],
      [
        "out",
        "ta"
      ],
      [
        "w",
        "ro"
      ],
      [
        "got",
        "ten"
      ],
      [
        "jo",
        "ke"
      ],
      [
        "ton",
        "ite"
      ],
      [
        "in",
        "clu"
      ],
      [
        "favour",
        "ite"
      ],
      [
        "ir",
        "on"
      ],
      [
        "tr",
        "ust"
      ],
      [
        "offici",
        "al"
      ],
      [
        "w",
        "ha"
      ],
      [
        "not_",
        "believe"
      ],
      [
        "lo",
        "ss"
      ],
      [
        "app",
        "ro"
      ],
      [
        "ma",
        "x"
      ],
      [
        "c",
        "ats"
      ],
      [
        "be",
        "y"
      ],
      [
        "la",
        "ck"
      ],
      [
        "g",
        "al"
      ],
      [
        "exper",
        "ience"
      ],
      [
        "show",
        "ing"
      ],
      [
        "cra",
        "ppy"
      ],
      [
        "ener",
        "gy"
      ],
      [
        "st",
        "age"
      ],
      [
        "fing",
        "er"
      ],
      [
        "than",
        "x"
      ],
      [
        "fr",
        "ustr"
      ],
      [
        "po",
        "in"
      ],
      [
        "o",
        "pp"
      ],
      [
        "pl",
        "s"
      ],
      [
        "pri",
        "ce"
      ],
      [
        "twi",
        "ce"
      ],
      [
        "an",
        "ti"
      ],
      [
        "cor",
        "re"
      ],
      [
        "enter",
        "tain"
      ],
      [
        "miss",
        "es"
      ],
      [
        "to",
        "ugh"
      ],
      [
        "stu",
        "dio"
      ],
      [
        "br",
        "ought"
      ],
      [
        "wi",
        "i"
      ],
      [
        "fa",
        "ult"
      ],
      [
        "cook",
        "ies"
      ],
      [
        "stra",
        "w"
      ],
      [
        "ward",
        "s"
      ],
      [
        "g",
        "ed"
      ],
      [
        "ti",
        "ve"
      ],
      [
        "sc",
        "ience"
      ],
      [
        "fer",
        "ence"
      ],
      [
        "cook",
        "ing"
      ],
      [
        "cha",
        "rac"
      ],
      [
        "b",
        "ang"
      ],
      [
        "che",
        "ers"
      ],
      [
        "sus",
        "hi"
      ],
      [
        "str",
        "ange"
      ],
      [
        "stay",
        "ed"
      ],
      [
        "emp",
        "ty"
      ],
      [
        "fol",
        "ks"
      ],
      [
        "mor",
        "nin"
      ],
      [
        "produ",
        "ctive"
      ],
      [
        "gun",
        "na"
      ],
      [
        "but",
        "ter"
      ],
      [
        "ro",
        "y"
      ],
      [
        "f",
        "ile"
      ],
      [
        "talk",
        "ed"
      ],
      [
        "s",
        "light"
      ],
      [
        "not_",
        "longer"
      ],
      [
        "add",
        "ed"
      ],
      [
        "c",
        "ab"
      ],
      [
        "pub",
        "lic"
      ],
      [
        "wro",
        "te"
      ],
      [
        "k",
        "u"
      ],
      [
        "nor",
        "th"
      ],
      [
        "b",
        "ble"
      ],
      [
        "dire",
        "ct"
      ],
      [
        "dd",
        "en"
      ],
      [
        "a",
        "tor"
      ],
      [
        "mill",
        "ion"
      ],
      [
        "amer",
        "ica"
      ],
      [
        "engl",
        "and"
      ],
      [
        "libr",
        "ary"
      ],
      [
        "mess",
        "ages"
      ],
      [
        "orig",
        "in"
      ],
      [
        "g",
        "ur"
      ],
      [
        "w",
        "s"
      ],
      [
        "tra",
        "vel"
      ],
      [
        "re",
        "cent"
      ],
      [
        "id",
        "a"
      ],
      [
        "pp",
        "er"
      ],
      [
        "di",
        "et"
      ],
      [
        "cu",
        "dd"
      ],
      [
        "mu",
        "l"
      ],
      [
        "t",
        "ag"
      ],
      [
        "z",
        "er"
      ],
      [
        "braz",
        "il"
      ],
      [
        "hehe",
        "he"
      ],
      [
        "tur",
        "ning"
      ],
      [
        "sw",
        "itch"
      ],
      [
        "ber",
        "t"
      ],
      [
        "some",
        "time"
      ],
      [
        "ex",
        "cell"
      ],
      [
        "i",
        "ble"
      ],
      [
        "tem",
        "pt"
      ],
      [
        "d",
        "umb"
      ],
      [
        "lo",
        "cal"
      ],
      [
        "ja",
        "pan"
      ],
      [
        "fa",
        "ve"
      ],
      [
        "tion",
        "s"
      ],
      [
        "for",
        "t"
      ],
      [
        "sc",
        "ri"
      ],
      [
        "ath",
        "on"
      ],
      [
        "si",
        "x"
      ],
      [
        "k",
        "itch"
      ],
      [
        "not_",
        "of"
      ],
      [
        "pie",
        "ce"
      ],
      [
        "re",
        "port"
      ],
      [
        "fin",
        "ale"
      ],
      [
        "tr",
        "an"
      ],
      [
        "woo",
        "hoo"
      ],
      [
        "p",
        "ly"
      ],
      [
        "s",
        "ession"
      ],
      [
        "ve",
        "t"
      ],
      [
        "ps",
        "y"
      ],
      [
        "ve",
        "lo"
      ],
      [
        "not_",
        "for"
      ],
      [
        "si",
        "e"
      ],
      [
        "drink",
        "s"
      ],
      [
        "cor",
        "n"
      ],
      [
        "me",
        "dia"
      ],
      [
        "par",
        "is"
      ],
      [
        "n",
        "c"
      ],
      [
        "not",
        "iced"
      ],
      [
        "zz",
        "y"
      ],
      [
        "i",
        "th"
      ],
      [
        "it",
        "ies"
      ],
      [
        "tweet",
        "ed"
      ],
      [
        "v",
        "or"
      ],
      [
        "cou",
        "ch"
      ],
      [
        "f",
        "lor"
      ],
      [
        "g",
        "ift"
      ],
      [
        "p",
        "hew"
      ],
      [
        "se",
        "l"
      ],
      [
        "t",
        "mr"
      ],
      [
        "but",
        "t"
      ],
      [
        "follow",
        "er"
      ],
      [
        "l",
        "ee"
      ],
      [
        "can",
        "ce"
      ],
      [
        "a",
        "live"
      ],
      [
        "or",
        "gan"
      ],
      [
        "id",
        "i"
      ],
      [
        "rele",
        "ase"
      ],
      [
        "lit",
        "er"
      ],
      [
        "ador",
        "able"
      ],
      [
        "a",
        "i"
      ],
      [
        "su",
        "ff"
      ],
      [
        "na",
        "ils"
      ],
      [
        "ton",
        "s"
      ],
      [
        "imag",
        "ine"
      ],
      [
        "excell",
        "ent"
      ],
      [
        "wo",
        "men"
      ],
      [
        "order",
        "ed"
      ],
      [
        "kitch",
        "en"
      ],
      [
        "sou",
        "p"
      ],
      [
        "s",
        "wear"
      ],
      [
        "te",
        "ars"
      ],
      [
        "pre",
        "p"
      ],
      [
        "play",
        "er"
      ],
      [
        "eeee",
        "e"
      ],
      [
        "f",
        "le"
      ],
      [
        "m",
        "are"
      ],
      [
        "ex",
        "p"
      ],
      [
        "pick",
        "ed"
      ],
      [
        "syste",
        "m"
      ],
      [
        "not_",
        "at"
      ],
      [
        "bat",
        "tery"
      ],
      [
        "every",
        "where"
      ],
      [
        "bri",
        "lli"
      ],
      [
        "ob",
        "vious"
      ],
      [
        "li",
        "mit"
      ],
      [
        "bo",
        "at"
      ],
      [
        "ive",
        "d"
      ],
      [
        "b",
        "read"
      ],
      [
        "grand",
        "ma"
      ],
      [
        "c",
        "row"
      ],
      [
        "mach",
        "ine"
      ],
      [
        "no",
        "oo"
      ],
      [
        "so",
        "c"
      ],
      [
        "a",
        "ster"
      ],
      [
        "ha",
        "ps"
      ],
      [
        "ro",
        "l"
      ],
      [
        "swee",
        "tie"
      ],
      [
        "th",
        "n"
      ],
      [
        "dam",
        "mit"
      ],
      [
        "g",
        "ah"
      ],
      [
        "st",
        "air"
      ],
      [
        "ke",
        "pt"
      ],
      [
        "oh",
        "hh"
      ],
      [
        "dr",
        "ama"
      ],
      [
        "mo",
        "ms"
      ],
      [
        "pp",
        "in"
      ],
      [
        "it",
        "ting"
      ],
      [
        "sm",
        "art"
      ],
      [
        "dif",
        "fic"
      ],
      [
        "a",
        "king"
      ],
      [
        "j",
        "im"
      ],
      [
        "can",
        "ada"
      ],
      [
        "mat",
        "t"
      ],
      [
        "ph",
        "ys"
      ],
      [
        "c",
        "in"
      ],
      [
        "brow",
        "n"
      ],
      [
        "lo",
        "y"
      ],
      [
        "expe",
        "ct"
      ],
      [
        "fab",
        "ulous"
      ],
      [
        "ho",
        "lly"
      ],
      [
        "ge",
        "or"
      ],
      [
        "sou",
        "l"
      ],
      [
        "not_",
        "way"
      ],
      [
        "d",
        "eep"
      ],
      [
        "he",
        "h"
      ],
      [
        "ry",
        "an"
      ],
      [
        "de",
        "lay"
      ],
      [
        "good",
        "ness"
      ],
      [
        "catch",
        "ing"
      ],
      [
        "child",
        "ren"
      ],
      [
        "l",
        "ts"
      ],
      [
        "ri",
        "c"
      ],
      [
        "har",
        "ry"
      ],
      [
        "lor",
        "d"
      ],
      [
        "swi",
        "m"
      ],
      [
        "bare",
        "ly"
      ],
      [
        "sp",
        "eed"
      ],
      [
        "per",
        "haps"
      ],
      [
        "brilli",
        "ant"
      ],
      [
        "as",
        "ed"
      ],
      [
        "weekend",
        "s"
      ],
      [
        "ten",
        "n"
      ],
      [
        "wash",
        "ing"
      ],
      [
        "si",
        "ze"
      ],
      [
        "laugh",
        "ing"
      ],
      [
        "cra",
        "ving"
      ],
      [
        "turn",
        "s"
      ],
      [
        "fly",
        "ing"
      ],
      [
        "co",
        "ast"
      ],
      [
        "su",
        "dden"
      ],
      [
        "l",
        "ou"
      ],
      [
        "ra",
        "p"
      ],
      [
        "to",
        "tal"
      ],
      [
        "gr",
        "rr"
      ],
      [
        "rain",
        "ed"
      ],
      [
        "lm",
        "fa"
      ],
      [
        "i",
        "al"
      ],
      [
        "euro",
        "pe"
      ],
      [
        "neigh",
        "bor"
      ],
      [
        "schedu",
        "le"
      ],
      [
        "twitter",
        "s"
      ],
      [
        "surpr",
        "ise"
      ],
      [
        "give",
        "n"
      ],
      [
        "cus",
        "tom"
      ],
      [
        "m",
        "t"
      ],
      [
        "p",
        "it"
      ],
      [
        "im",
        "ma"
      ],
      [
        "d",
        "ers"
      ],
      [
        "not_",
        "find"
      ],
      [
        "hur",
        "ting"
      ],
      [
        "gg",
        "y"
      ],
      [
        "ug",
        "ly"
      ],
      [
        "ter",
        "ri"
      ],
      [
        "ger",
        "y"
      ],
      [
        "p",
        "on"
      ],
      [
        "g",
        "ers"
      ],
      [
        "to",
        "ast"
      ],
      [
        "pro",
        "mo"
      ],
      [
        "holi",
        "days"
      ],
      [
        "s",
        "ir"
      ],
      [
        "ev",
        "il"
      ],
      [
        "tre",
        "at"
      ],
      [
        "und",
        "ers"
      ],
      [
        "in",
        "cred"
      ]
    ]
  }
}